#version: 0.2
" :
, "
\ /
": "
t e
" ,"
Ġ "
r e
c o
0 0
f i
r o
i n
l e
s e
o r
l l
Ġ Ġ
i d
i m
h t
s t
n t
u r
a t
p ro
n d
f a
m e
fi le
pro file
g e
t h
t p
ht tp
" ,
{ "
u ll
n ull
t w
ur l
co m
d i
\/ \/
o n
: \/\/
Ġ a
i t
e r
l se
fa lse
a ge
http s
ĠĠ ĠĠ
t o
p l
": [
b a
im age
e s
te d
s i
co u
th e
cou nt
": {"
2 0
u se
si z
b s
6 5
Ġ w
e n
1 00
m a
" }
im g
tw img
a n
siz e
i s
o w
te r
1 5
u s
in g
st r
st at
c k
x t
r i
e d
100 65
fi t
me di
use r
pl y
re ply
te xt
1 2
i on
u t
p e
] ,"
\ "
stat us
t r
u nd
Ġ the
Ġ f
c e
co l
ba ck
col or
a r
3 3
ro und
p bs
a s
Ġ b
g round
back ground
u e
00 00
medi a
id e
Ġ d
a te
1 8
t y
ĠĠĠĠ ĠĠĠĠ
i e
a me
10065 7
f o
c re
] }
it ter
1 0
1 6
o ur
Ġ I
te nd
Ġ s
u m
re size
ll ow
00 3
3 0
Ġ h
j p
fo llow
jp g
re v
c es
i te
ty pe
ie w
image s
rev iew
i g
e e
n ame
in di
u l
Ġa nd
8 0
indi ces
in tend
1 4
the me
v e
Ġf or
intend o
"} ,"
Ġ 20
tw itter
u n
N intendo
b le
1 9
Ġ o
re s
Ġ to
n o
a ted
h e
l o
d e
ig ht
1 7
on e
1 3
8 3
a y
fa v
tw ee
a ble
t i
b o
res s
Ġ th
2 8
c h
Ġ re
v er
ide o
":[ {"
at ion
v ideo
Ġ p
2 4
2 6
2 7
q u
2 5
4 9
ma l
our ce
im e
s ource
er s
15 0
e x
6 9
h o
cre en
s creen
":[ ],"
or mal
Ġ in
Ġ #
a l
re twee
l at
it i
Ġw as
or d
6 4
c ation
Ġ it
Ġ m
c t
tr ue
3 4
D f
ge o
an s
qu o
6 7
Ġo f
u d
ul t
l y
co nt
Ġd ress
Ġ l
or s
2 9
ri b
l an
s ide
tr ans
fav or
3 9
ba r
n ormal
Ġ +
fa ult
de fault
rib ut
en able
a nd
cre ated
cont ribut
enable d
lat or
lan g
trans lator
quo te
contribut ors
side bar
= \"
n n
u st
6 8
Nintendo E
ba nn
č Ċ
di s
m p
e nt
a g
Ġ g
pl ay
t ime
b g
a bs
A A
theme s
F F
3 7
Df g
c a
ho to
Ġ T
i f
Ġ S
dis play
6 0
p hoto
ĠĠĠĠĠĠĠĠ ĠĠĠĠĠĠĠĠ
n g
]} ,"
a d
} ,"
iti es
Ġ size
8 7
l s
Ġb e
um b
8 5
ent ities
8 4
me nt
3 5
, {"
r y
i c
8 9
]} ],"
th umb
Ġ e
r at
t ion
Ġ J
f f
4 4
Ġ n
ma ll
w e
ex p
9 9
Ġ is
ar ge
0000 00
p ng
or y
5 5
Ġ A
7 7
Ġ c
n ted
4 0
d ate
Ġ 12
3 2
Ġ com
Ġ C
Ġ 16
u p
exp and
Ġ on
Ġw e
retwee ted
expand ed
3 20
ion s
":" \
c ate
d y
ite m
s y
s um
g ory
cate gory
q ue
in k
rat ing
ma ry
re nted
sum mary
\" ",
Ġw i
Ġth is
he ight
p tion
s mall
a ce
l arge
Ġs o
es c
5 7
5 0
ri ption
Ġ type
4 7
3 6
esc ription
d escription
2 2
bo dy
ag s
ate s
m bo
h as
b ust
T ue
e nd
url s
has ht
ment ions
mbo ls
hasht ags
sy mbols
o u
Ġ \
p o
ĠJ un
33 33
medi um
siz es
ro p
i ted
l ow
]} ,{"
se nt
E E
Ġ lo
c ted
Ġb ut
ord er
5 9
p ic
1 1
Ġ20 18
ri end
ord in
3 8
pl ace
co ordin
coordin ates
que st
se t
c rop
ve l
ow n
we ight
l bs
l is
re f
Ġ ma
no ti
fi l
Ġre l
i fi
Ġ M
use s
un c
riend s
favor ite
\" \
cation s
Ġwi th
l ink
lo cation
fi cations
fi ll
pro te
a m
or t
le vel
ifi ed
o ff
ite s
z one
f riends
lis ted
prote cted
fav our
ti le
ut c
retwee t
ver ified
fil ter
noti fications
b order
follow ing
favor ited
stat uses
re quest
follow ers
favour ites
tr unc
off set
trunc ated
Ġh ref
no follow
Ġ y
i r
co n
bann er
bann ers
Ġ t
T w
Ġw o
6 80
n one
Ġd e
4 8
6 6
Ġm y
ĠT he
s h
7 9
Ġ 2
ver y
Ġ F
4 5
e Tw
f e
Ġ W
k e
r a
Ġ st
m s
Ġ no
7 0
ro s
D EE
w w
a ll
it ch
320 18
Ġ E
st a
8 8
15 28
eTw itter
ed d
9 0
12 00
Ġ @
Ġ B
nt s
"} }
Ġ fit
Ġ" ,
Ġth at
twee t
r an
"}} }
Ġh a
8 2
Ġ https
! ",
w itch
ma sh
m b
Ġ se
Ġ P
Ġ D
Ġ 4
sta mp
ul d
time stamp
č čĊ
Ġ me
9 7
e l
FF FF
0 4
e b
i l
9 5
te nt
7 5
b ly
8 6
Ġn e
Ġ R
v ed
10065 69
g if
tend ed
' t
edd ing
n s
s si
d ress
":[ ]},"
3 1
fe ct
Ġa n
er fect
ex tended
Ġwe ar
Ġ j
0 5
i re
Ġm o
ro id
o k
Ġha ve
con tent
o t
Ġ G
a p
Ġno t
o l
Ġs h
re at
Ġ O
. ",
Ġa s
"}}} ]},"
4 2
i p
Ġ L
T h
Ġ -
3333 33
iti ve
Ġ 8
Ġ fa
at h
' s
Ġ or
Ġ up
Ġy ou
ĠI t
2 3
l as
"} ]},"
po ssi
Ġw h
S witch
Ġ at
t le
u g
ns itive
possi bly
se nsitive
4 6
all y
Ġ 0
Ġ fi
Ġ N
Ġ20 17
4 1
S mash
4 3
ran ge
u ro
a in
Ġ le
Ġ H
9 3
up er
Ġp erfect
9 6
d own
b it
uro pe
f ort
Ġwo uld
5 3
B ros
20 26
lo ad
Smash Bros
5 2
Ġ U
down load
5 4
th er
r ate
. .
Ġ (
t ag
Ġl i
e t
ar ty
Ġ 5
Ġcom pl
7 6
bit rate
00 0
5 6
3 83
9 4
o m
v a
mb er
i ll
if y
am pl
ampl ify
v id
T he
Ġ very
c i
ĠĠĠĠĠĠĠĠĠĠĠĠĠĠĠĠ ĠĠ
Ġ20 16
":" ","
Ġ Ċ
fort able
or k
DEE F
D DEEF
ime nts
2 1
h one
Ġa re
Ġ |
re d
A E
ĠĠĠĠĠĠĠĠĠĠĠĠĠĠĠĠ ĠĠĠĠĠĠĠĠ
in fo
6 3
R T
ww w
Ġcompl iments
5 8
DEE D
Ġ 6
14 0
Ġ pro
it tle
l a
Ġh e
12 80
Ġa ll
las s
Ġ en
i st
Dfg Q
"} ,{"
8 1
1528 8
e w
Ġl ittle
9 2
our g
w edding
. \
o s
Ġd id
ourg lass
Ġwo re
6 2
b e
! !
l d
Ġcom fortable
Ġg reat
Ġa f
64 0
a nt
Nintendo D
ire ct
3 00
i o
h ourglass
Ġf ro
Ġ co
7 4
6 1
Ġ i
g h
Ġlo ok
"} },"
49 39
6 37
0 8
it y
100657 7
ti c
Nintendo Switch
o o
NintendoD irect
FFFF FF
Ġo ut
67 5
Ġh ad
Ġto o
ie nt
a ut
le s
Ġ con
0 7
10065 68
1 30
v en
Ġli ke
0 6
Ġ back
ĠC l
n ite
aut if
ĠĠĠĠĠĠĠĠĠĠĠĠĠĠĠĠĠĠ Ġ
i ch
7 8
5 1
ĠW eb
u te
7 3
1528 82
Dfg V
ĠA nd
ĠCl ient
9 8
n y
49 1
bo ut
12 4
ud d
le tic
ath letic
pe ct
u re
u ch
re t
Th is
l t
Ġfro m
7 2
f ull
g own
g ht
Ġ 3
Ġ color
Ġa m
autif ul
ar y
10 80
on g
ar d
17 6
80 491
4939 80491
fa ir
. ","
Ġaf fair
Ġ20 15
100 637
n e
Ġ k
18 0
ĠAnd roid
NintendoE urope
f ormal
' m
Ġ 1
Ġ V
and roid
a nts
Ġ 10
Ġ &
0 9
Ġ un
19 9
Ġ20 14
Ġ ch
Ġn ight
Ġj ust
Ġb y
Ġ cou
19 20
Ġw ork
15 2
7 20
u de
t a
v i
p er
Ġmo re
Ġg ot
in e
o ut
im ate
ĠT h
ame s
we b
Ġ Nintendo
Ġ 7
Ġ 14
100657 0
e p
Ġ ge
Ġ di
Ġa g
d u
Ġso me
Ġcou ld
D e
Ġ 18
Ġf lat
p arty
Ġ our
p ri
ig h
ca use
D A
Ġ ex
t s
va ri
30 4
p le
Ġa r
Ġ r
Ġw edding
Ġb o
1 12
1 20
b er
7 15
Ġb ust
Ġp o
Ġ ba
or n
di tion
lt imate
Ġlo ved
Ġb it
ud c
1 10
Ġre nt
po t
a c
u di
16 0
33 6
ce i
U Y
3 60
rat io
vari ants
as pect
P o
Ġwh ich
E R
ou gh
ci al
Ġl a
Ġb ra
fi nite
Ġd o
ter ing
Ġl ong
u ff
Ġag ain
d ay
Th u
f r
Ġ if
Ġwe re
G ame
100657 8
67 6
finite ly
ĠĠĠĠĠĠĠĠĠĠĠĠĠĠĠĠĠĠĠĠĠĠĠĠ ĠĠĠĠ
Ġbe cause
Ġth an
13 5
Ġi P
2 20
Ġ20 12
ĠS uper
E F
00 9
pe t
ls o
Ġa bout
Ġdid n
el t
ng th
ri c
Ġre ally
p a
se d
S t
p s
Ġ ri
i ce
100 64
dition al
o ve
cei ved
Ġ one
Ġwi ll
Ġc an
ĠiP hone
si on
U w
i ck
ip hone
ĠS t
Ġle ngth
me r
le r
u ary
n er
Ġma ny
N ew
udi o
i ve
\/ ","
Ġne w
ti z
Ġy our
ve nt
Ġ 11
Ġfa b
1 17
30 6
12 8
c to
Ġflat tering
Ġ K
1 18
Ġa d
Ġan y
Ġ Y
Ġwe ll
27 2
ud f
1 16
Ġf elt
m one
Ġ [
Ġto p
tiz able
mone tizable
ad ditional
Ġo ver
83 2
n intendo
se s
Ġbe autiful
Ġa l
ĠĠĠĠĠĠĠĠĠĠĠĠĠĠĠĠĠĠĠĠĠĠĠĠĠĠĠĠ Ġ
Ġt ight
i al
13 2
100657 26
Ġw a
1 15
Ġde finitely
Ġ {"
Ġ ca
A I
ar t
Ġh ee
Ġ v
Ġ str
12 5
0 2
S uper
13 6
pe ar
ĠF eb
pet ite
Ġa c
ĠU ltimate
u b
pe g
m on
Ġfab ric
Ġe ven
Ġ res
10 9
Ġt a
oo d
0 3
M e
Ġ us
Ġsh ort
p ort
100657 29
th ing
7 89
Ġl arge
4 30
C C
Ġg o
Ġre ceived
in t
an ce
Ġs ho
Ġs mall
a v
n i
ct s
10065 67
Ġe very
it le
la ck
15288 20
25 6
14 5
ro w
p r
] ,
A B
me nd
Ġ 13
c r
33 93
Ġge t
Ġ ro
19 41
10 5
n ing
Ġo ther
7 1
g i
Ġ und
e mb
m o
Ġma de
t itle
9 1
u be
ĠS mash
1941 3393
emb edd
embedd able
Ġ2 1
Ġhee ls
c AA
Ġ 17
24 5
T R
Df d
U R
57 6
ter ial
UY AA
A G
ce mber
Ġ 9
v es
ĠD e
Df e
2 27
2 00
Ġe vent
Ġbe ing
com mend
7 44
o us
Ġe nd
Game S
24 0
cto ber
Ġwear ing
a ri
pl i
Ġ2 009
O y
10065 80
Ġre commend
X q
I N
4 25
AA A
p d
ul ar
100657 5
Ġ 15
100657 79
Ġb ig
Ġf un
Ġd own
0 1
Ġ 19
m y
Ġma terial
M on
ĠT w
ĠM ar
New s
Ġm uch
Ġri ght
ĠTh is
9 68
Dfg N
N in
t ing
F ri
I n
100657 3
Ġwh en
Ġ time
V M
er al
Ġlo ve
Ġa lso
Ġh as
ge r
6 33
ĠE urope
Ġ 24
a st
o se
Ġsh ow
Ġ tr
re e
ros s
Ġ20 13
i le
Ġ te
Ġon ly
10 89
39 7
ret ty
u ally
F A
du cts
ĠS witch
19 4
C om
Ġst ill
Ġ 22
100657 24
quo ted
i z
13 7
10 7
ment s
100657 300
U E
a k
Ġp arty
13 8
10 4
de red
en eral
Ġund er
Ġ pl
Ġ qu
65 20
Ġ2 3
AG D
.. .
d d
Xq Oy
pd AGD
336 1280
220 3361280
100657300 2203361280
Ġne ed
p t
14 9
Ġthe y
6 00
W ed
f or
Switch News
Nin SwitchNews
ĠI n
O ctober
M ar
Ġbe en
d a
ĠN o
pli cation
s he
320 4
0 64
Ġa ble
100657 4
F Z
un e
Ġwa ist
100657 2
is h
Ġor dered
124 6520
789 1089
1246520 3204
7891089 12465203204
Ġhe re
Ġd ay
ĠR e
C E
A s
"} ,
ap plication
2 176
i a
13 4
e ar
ran ce
20 19
ct ion
Ġf o
ove mber
S A
O O
ro ug
13 9
Ġb lack
26 0
p y
14 6
M ay
80 9
Ġma y
Ġ true
u fe
Ġnew s
w ay
g ular
p an
ĠTw itter
99 2
Ġs l
she ath
Ġp retty
X U
a ch
]} },"
Ġthe re
pri l
Ġ z
P z
ĠĠĠĠĠĠĠĠĠĠĠĠĠĠĠĠ ĠĠĠĠĠĠĠĠĠĠĠĠĠĠĠĠĠĠ
Ġf ee
o y
1 33
S un
55 2
te mber
Ġof fi
30 5
p u
18 7
15288 19
38 6
on s
les s
UR L
Ġperfect ly
S at
25 0
Dfg M
6 28
ul y
Ġr un
O N
ur ation
m ill
EF EF
s u
N ovember
30 8
Ġs a
J une
f c
1 14
ep tember
], [
6 16
83 5
Ġsho uld
ĠJ an
a b
27 7
Ġw ho
d uration
mill is
m peg
mpeg URL
B e
4 60
e xt
es s
1 19
832 000
Ġ {
us h
a ight
v ing
gh ter
Ġ }
Dfg T
ck et
Ġs k
geo us
or geous
L o
2176 000
ir t
20 22
p h
Ġ im
x y
100657 9
ĠC o
a i
0 39
GameS pot
g ames
Dfg O
2 65
5 00
out ube
u al
at tle
Ġh igh
C h
33 0
an im
U cAA
Ġc he
7 12
Ġfi ghter
er y
8 24
Ġa p
Ġn ice
De cember
ma nd
ol d
t ain
38 25
e very
ble m
Ġ si
Ġj o
ff e
Ġh ow
E A
V W
A pril
Ġ20 11
18 4
19 05
30 7
di a
37 4
Ġg ood
Dfg W
o re
ĠB ros
Ġlook ed
E N
U K
Ġ exp
12 9
every day
c l
Ġre nted
ma z
Ġd res
u c
e al
) .
a se
ug ust
Ġof f
15 5
M A
w ork
10 3
4 00
7 50
Ġa round
ĠĠ Ġ
g a
Ġ 28
ing s
ar k
G reat
33 7
ar row
S eptember
Ġw ay
V Q
i en
65 6
ret ch
Ġb r
le d
Ġn arrow
6 35
o me
f fi
16 8
19 2
y outube
Ġ dis
maz ing
Ġ \"
32 0000
ee t
in s
17 0
10065 8
15 27
10 6
o ther
Ġth roug
49 6
19 5
he re
Ġ ]
17 7
in ing
Ġd es
anim ated
Ġfee l
Dfg S
o p
o d
Ġc ut
F eb
I t
Ġst retch
ro n
9 12
27 18
00 8
ĠR TR
Ġz ip
ma n
34 0
1 65
as y
Ġs uper
Ġk n
Ġh ist
Ġp r
20 1
Ġo p
ba u
4 84
199 87
ĠC h
n a
Ġse e
100 397
ĠM ay
G bau
1905 3825
19987 19053825
100397 1998719053825
J V
19 0
Ġ pe
77 17
Ġwas n
Ġ cont
a re
14 8
ĠE very
Ġstr ap
715 7
ter n
3 68
ers on
! ","
16 9
i ct
AA M
1 13
Me dia
co me
968 6
2 18
Ġ review
14 4
7157 132
Dfg R
Ġ :
le g
Ġen ough
str aight
ĠSt udio
V E
715 9686
10065724 7717
100657247717 7159686
st udio
Ġma ke
Ġp ar
l and
u y
10 8
W s
ame r
A ugust
z e
Ġ tw
j a
e Media
87 2
Ġend ed
12 6
10064 1080
r d
Ġw or
A N
am ing
Ġhist ory
Ġc las
68 1
o b
ces s
Ġwith out
":" #
12 3
26 4
ari o
UE AA
ĠA n
e S
85 83
13 60
Ġth ink
19 8
m i
85 0
20 992
Ġmo st
69 13
A M
33 9
68 9
10 90
Ġ 30
in d
ip s
Dfg U
Ġche st
Ġ 29
245 34
S h
Ġd on
2 16
Ġse r
100637 24534
576 20992
10063724534 57620992
Ġfi r
Ġ 25
bs ol
an uary
40 9
Ġ video
in ce
49 8
j m
t ter
Mar ch
69 0
5 87
u k
13 15
' ll
games pot
12 7
2 32
EE EE
eTw eet
27 28
J uly
49 0
60 8
W k
Ġp re
Ġlo t
5 68
Ġc ute
bsol ute
Ġc ur
f t
Ġst y
Ġth ough
le e
100657 77
, \
w ard
ur n
2 80
ĠM y
Ġ $
a z
r uary
J anuary
JV Com
D B
ort nite
P l
As H
Pz v
VW cr
AsH VWcr
Pzv AsHVWcr
ee p
E C
Ġa mazing
u ck
100657 17
3 84
u si
i es
80 8
O S
27 0
100657 87
"}}} ]}},"
an c
re nt
X k
ation s
o on
ri es
Ġ 26
Ġne ck
Ġdres ses
20 48
30 37
14 7
l ine
Ġp erson
se r
s s
H H
VM AA
65 0
Ġthe m
15 6
99 99
Ġdo es
Ġp a
g on
28 8
12 2
bsolute ly
45 6
10 2
G X
re n
Ġ order
ĠO ct
t v
17 8
Be autiful
Ġfir st
Ġus ually
Ġ} ,
Ġs up
Ġf e
u it
A R
ĠL o
Ġp er
e ver
16 4
100641080 227
15 7
100637 0
P x
64 48
39 05
te n
84 0
r am
ĠI f
Po ke
intend eal
83 4
ĠA pr
E S
Ġh el
ly gon
it ion
Ġ \/
k ed
at ch
37 7
3 28
Ġ20 10
47 5
Ġ 31
ĠJ ul
a bout
Ġ use
O R
Ġse xy
Ġfa n
as h
90 7
89 7
17 5
Ġs ur
le y
j e
"}}} ,{"
A U
to p
95 2
Ġ 27
Ġs n
20 8
Ġbe tter
Ġg orgeous
Ġb attle
11 1
Ġw ant
I G
I S
10 1
Ġh ips
n I
6 24
00 84
l i
Ġma r
V AAA
10065 6
85 08
66 66
m blem
Q u
a h
Ġar ms
ce nt
4 80
Uw AA
po nd
Ġs lee
if t
460 3905
712 8583
1360 4603905
7128583 13604603905
Ġthroug h
p ed
Ġ es
R e
Ġin ch
Ġin to
ll y
j u
2 24
l f
19 7
Ġth ick
Ġaf ter
Ġ que
Feb ruary
de ck
ĠC om
pro ducts
De ck
tweet deck
eTweet Deck
Ġw orn
D D
Ġsh a
30 9
Ġreview s
Dfe Y
A L
Ġ rev
_ _
a a
Ġw ent
Ġde ta
) \
m in
Ġg ames
me d
25 4
Ġrun s
e o
ross ing
j o
g g
i k
24 4
Ġres pond
ter s
ig n
ou nt
b ush
Super SmashBros
ri ed
orn bush
2 28
Ġs ince
100657 277
pl at
17 4
in ner
G eneral
N intendeal
count ry
Ġfi n
s o
Ġj e
7 87
85 6
49 430
lo gi
F rance
P erfect
24 6
Ġbo dy
67 0
49430 8508
Ġe asy
26 9
u x
Ġare a
8 80
25 9
Ġ0 1
15288 22
re gular
8 00
um ps
29 7
C o
5 40
K w
42 3037
100657277 423037
100657277423037 6448
Ġa ct
lo g
av y
an ge
12 1
il v
CC S
ilv CCS
ilvCCS GX
24 59
ou ght
ĠĠĠĠĠĠĠĠ ĠĠĠĠ
a j
i se
z ra
Ġst o
ver se
r Y
Ġcom mand
Ġma k
Ġpro ducts
NintendoE S
AAM zra
6913 152
100641080227 6913152
F ortnite
64 8
Ġlo ose
Ġl ow
44 6
Ġ ra
Ġfor mal
Ġe xt
Lo ved
Ġp hoto
b y
77 12
64 5
69 7
85 9
44 8
e a
c er
M i
Ġjo ining
ust o
Ġg ive
10 24
U n
IN G
ĠG eneral
ĠA ug
! \
Ġl ace
18 5
9 49
Ġs ay
ĠY ou
49 15
Ġ0 3
ver all
100657 6
XU AA
ĠU K
c ur
Ġg ame
],[ -
Ġe l
Ġ0 2
I T
Ġa bsolutely
27 9
Ġp ict
E L
8 87
f ul
20 9
Q V
Ġre g
E very
ĠĠĠĠĠĠĠĠĠĠĠĠ ĠĠ
usto mer
C H
va il
ĠO ur
29 4
Ġoffi cial
Ġsk irt
25 7
Ġthe ir
3 85
ire d
Ġp art
88 8
ĠC A
55 22
' re
b r
ĠF or
100657 89
16 1
um mer
25 1
Ġ quest
l ing
Ġs ide
Ġsn ug
26 6
k s
ĠW e
t on
22 2
744 31
4939 74431
8 18
Ġtw o
im al
Ġsty le
27 5
1315 16
Ġwh at
Ġgo ing
47 2
at ing
Ġfro nt
9 55
el come
logi es
29 0
10065717 430
Ġy ear
2718 7712
10065717430 27187712
el da
12 33
2459 5522
!! !!
ĠA r
4 34
to m
Ġcom ple
vail able
Y C
D F
W elcome
e en
Ġse ries
is te
47 0
leg ant
17 9
a ve
' ve
Ġre t
l le
i x
re st
2 10
28 5
29 8
35 8
W V
m un
d o
a le
e urope
ĠM e
Ġcon s
14 79
cket s
an y
V i
15 9
1006569 7
O VE
O U
plat oon
635 20
Ġclas sy
100 8
67 7
89 6
F ire
fo re
an n
Ġro om
Nintendo UK
34 4
GameSpot E
l u
B g
Ġk eep
Ġs p
187 55
14 2
Po int
67 2
Ġlook s
Dfg P
16 2
16 7
Ġquest ions
ur ing
ĠE s
Ġc ustomer
19 3
y o
26 8
15 25
1006569 51
Ġ 04
Ġd inner
18755 63520
100656951 1875563520
29 9
E D
3 24
ĠS ep
u res
: \
ĠNo v
16 6
Ġo c
26 24
ĠT H
Ġwork ed
Ġb ot
69 9
v o
ud ff
Ġh it
ba bly
34 83
o llow
T e
Ġw here
18 84
is s
EFEF EF
Ġ0 7
65 4
l ue
ue g
ĠĠĠĠĠĠĠĠĠĠĠĠĠĠĠĠ ĠĠĠĠĠĠĠĠĠĠĠĠĠĠĠĠ
un ning
3 25
po logies
Ġslee ves
600 12
ĠS o
26 7
b b
in ess
Ġp as
ar s
n M
04 3
Ġn ow
0 44
66 6
Ġth ought
v ol
Z elda
S H
ĠB e
Ġh is
Ġbe st
4 14
O T
jm d
st ag
77 6
47 912
68 4
50 4
jmd ornbush
Ġ20 19
T V
100657 80
37 9
00 7
W AAA
im es
587 47912
stag ram
Ġg ir
n A
000 16
no ther
sh ift
43 872
25 8
f y
Ġ ent
20 4
40 5
Ġmo ve
x i
ĠCo mp
c y
Ġh o
n O
40 6
Ġbo th
4915 00016
33 8
Ġg l
Ġs ummer
S o
umps uit
!! !
Ġ play
Ġlo s
100 0
ĠV ery
15 4
ra ph
35 130
ĠA lso
Ġ X
tw een
ĠN ew
83 7
3 65
24 7
J r
ĠC ol
F it
io us
552 320
85 8
Ġw an
84 1
h AB
DfgQ eo
10065726 35130
DfgQeo WV
1006572635130 552320
29 6
57 0
3 12
Ġ 05
ch o
Nintendo France
n ap
69 6
Ġser vi
Ġw ish
Ġdi ffe
I L
X j
5 49
2 39
Ġpo ckets
Ġn or
Ġback up
g s
way s
X ht
Ġa vailable
U ltimate
C F
Ġw ar
ĠO verall
Ġexp er
18 9
- -
ri ga
Ġen e
Ġzip per
100657 25
Ġ0 9
g n
Every one
L K
k o
Ġd ance
Ġs uch
ĠF rance
Ġbot tom
p or
ĠW o
ĠB ut
L e
n C
44 7
for m
DfgQ y
Ġp ur
30 59
33 5
p i
37 8
O L
Ġpro bably
W e
Ġ own
60 9
Ġ http
64 7
S e
59 4
ĠU SA
E mblem
28 9
Ġfo llow
85 7
lo ve
Ġe t
anc ing
Ġene my
Ġa w
69 8
j peg
Fire Emblem
ĠDe c
49 4
al ity
Ġe st
a f
Ġbe tween
) ,
20 7
28 4
Ġde l
10065726 94
1233 43872
1006572694 123343872
\/ \
Ġs ure
39 0
Ġdi re
nd er
20 5
Ġthe se
Ġp le
633 8
ĠH e
28 7
60 7
R o
Ġco me
Ġfi ne
at ive
27 4
al s
Ġap pro
Ġ ke
Ġs mal
Ġfa ll
B F
sta nt
one l
Ġexper ien
n The
Ġ col
30 2
Ġs ub
Ġwh ile
36 3
Ġsha pe
300 2
b el
A C
272 39
Ġthe n
Ġst and
ĠEurope an
S platoon
14 3
Ġan no
in a
24 9
ĠW h
57 4
ma s
\/ -
Ġre gular
Ġin cl
AE T
l r
Z p
Ġl iste
Ġb us
Po lygon
30 44
ĠH o
24 8
Ġha p
al k
Ġo per
A T
si c
ron ic
Ġe legant
te s
100657 00
Ġwan ted
VQ AA
Ġse qu
Ġa nother
aj or
co rd
Ġlarge r
Ġ !
Ġs pe
Ġliste ning
M y
Ġsmal ler
pr ing
49 9
3 67
18 6
xt F
il le
DfgQ xtF
10065729 628
UYAA Vi
1884 2624
DfgQxtF UYAAVi
10065729628 18842624
Ġ0 6
Ġm id
s U
Ġta ke
ad o
me n
ver s
Ġt ie
y s
100657 84
37 0
J i
Ġa pologies
15 27239
1527239 251
65 7
w h
Ġsl ight
o ver
U ni
s on
Ġneed ed
Ġc lo
id ley
34 5
57 5
ill ion
Ġli ked
nap py
3 87
ĠEs pa
ĠE x
q T
U C
O E
fi n
29 99
id er
ĠU n
tw itch
Ġbe fore
Ġin cre
L D
k q
Ġit s
ad y
38 15
Ġlo ts
z r
Ġhe avy
G o
3 89
Ġop en
D a
Ġex pe
37 6
2 15
100 5
ueg os
68 8
.. ..
O M
ir d
3 13
Poke mon
Ġ vi
65 9
100657 55
86 3
Ġs he
j L
Ġ \/\/
g o
V ery
Ġo b
B o
A n
mall y
Ġl ight
u nt
full y
Ġs im
f g
F I
2 35
o ple
Ġfit ted
ol id
Ġact ually
k t
4 64
C V
r ag
50 6
ĠD ress
3 19
c he
100657 69
F C
Ġma n
Ġdiffe rent
ĠS e
Ġshould ers
T o
ĠComp any
3 18
H M
30 57
Ġre port
ĠWo uld
a ct
68 5
H e
x p
90 9
Ġsto ck
Ġsup port
Ġover all
Ġsa id
Ġtr y
Ġm illion
99 039
3 49
34 6
if e
_ ","
N o
Ġ place
g S
ee k
d om
10 83
AA P
6338 176
1006370 99039
100637099039 6338176
Ġpe ople
Ġf low
40 1
ĠK ing
Ġeven ing
' d
Ġg love
f b
00 6
M s
29 29
L C
DB Z
re am
V S
Ġ0 8
Ġta pe
Ġ 00
E B
AA AA
AA pa
Px sU
DfeY PxsU
ĠP o
N N
A l
Ġp os
Ġme n
O x
ca lly
in al
25 24
Ġkn ow
Q U
ro l
j N
ca sion
Ġd ancing
L u
ba nd
ba be
83 9
p U
V b
at t
Ġstrap less
O h
7 43
Ġevery thing
X cAA
Ġsome thing
Ġexperien ce
se lf
1006577 67
e c
55 7
v al
Z Z
5 85
DBZ babe
E Y
ĠG reat
X M
\/ _
ĠP l
ot s
Ġar ri
ti ve
100657 75
ĠW ar
ma il
15 3
ar ac
69 24
ma r
S N
2 34
Ġnor mally
ann el
M ario
) ","
g W
n c
le ct
79 2
un ch
Ġcould n
I I
18 8
Dfe Z
Ġj a
39 2
A r
ud fa
Ġst ate
42 35
ffi c
Ġre qu
AB B
I F
25 5
Ġc ar
44 0
c ity
Un ited
ve st
Ġ noti
n S
umb lr
ĠDe cember
Ġ ty
13 1
15 8
Ġm in
p ing
100 6
2 29
99 9
40 7
W ore
i que
Ġe ar
77 0
Ws AA
st s
Ġqu ality
Ġad d
3 80
Ġf ull
A Y
1006569 5
k y
ud de
c R
m q
Ġm ight
ĠO n
e red
il ity
Ġg own
Ġf lo
Mi R
2 26
85 484
26 40
Ġ cre
89 9
Ġy et
47 4
ĠP ro
ĠKing dom
ve lo
Ġsequ ins
17 3
Ġcom mun
a u
Ġp ut
Ġ sent
35 6
c al
Ġget ting
co nd
Ġs u
Ġoc casion
ti es
Ġne ver
OO OO
87 0
on ger
Ġp ri
D E
ĠP arty
2 13
g b
100 63
18 1
V O
EEEE EE
mp er
Ġs it
Ġc ross
i th
U c
ho p
ĠI S
Ġslight ly
ĠA s
Ġfit s
Ġ ],
83 8
59 7
ath er
Ġbr id
a ck
Ġmak es
ffi cial
5 89
ime nt
Ġmo de
20 18
or ter
t umblr
N ow
57 9
Ġke pt
nt h
27 8
z y
Ġst unning
19 6
udd f
Ġl onger
Ġfo und
87 5
Ġstrap s
Ġin te
la de
count s
Ġ18 64
Ġfit ting
ut m
c ed
06 27
- .
v A
en s
ĠThe re
2 25
ug ge
nappy TV
Ġp at
39 4
55 0
84 7
Ġs ame
Ġlook ing
h y
a ter
B M
27 64
Dfg X
3 26
K d
ĠM ario
35 0
V w
Ġdeta il
39 9
Ġth ings
an cial
Ġre d
Ġfi nd
u v
at a
at s
er d
Ġt ons
ĠF ollow
Ġexpe cted
9 50
mo st
, -
u ct
Ġge ner
88 6
100 640
S S
Ġbus iness
U SA
7 80
Ġs pring
2 30
9 199
Ġf ew
g an
as ual
Ġfor m
E W
2 12
q l
Ġd ate
v iew
Ġa bo
49 7
i i
di t
Ġ trans
et s
ju P
Ġincl ud
809 1008
s te
689 8091008
1083 6898091008
MiR fg
9199 10836898091008
juP MiRfg
65 5
3 29
35 340
77 7
es ome
no t
26 94
un s
a mp
Ġ sizes
l h
p re
Ġh ard
pri ate
T Y
30 67
35340 690
ci ally
85 5
ir th
Ġabo ve
P arty
w s
r ame
9 60
n F
84 8
g raph
64 6
Ġret urn
g r
Ġc ame
50 5
Ġg old
Ġan ime
2 19
Z H
Ġstretch y
Ġcolor s
Ġb uy
I R
ĠLo ved
M r
a si
AA E
b f
ĠL OVE
15 1
Ġ20 20
29 5
30 68
Ġneck line
16 80
Ġres ult
Ġcom pan
4 37
GameS top
h q
Ġcom ing
ĠS h
Ġt ro
Ġa u
Ġqu ite
L ove
a w
x U
T H
I O
at ter
v ille
Ġun ique
Ġ ran
Ġsh orter
Uni verse
c b
it s
ĠP ok
igh ter
Ġex ce
ĠA d
9 81
24 63
Ġpar a
a K
i an
75 6
16 3
re me
Uw AET
D R
K E
":[ ]}},"
d b
n P
40 8
Ġpro blem
I C
Ġt all
2 37
Xk AA
100 4
ir ai
w ise
P ow
Ġen g
ĠH ow
CE O
H U
14 59
V ER
100657 30
80 7
! !",
I D
67 4
u red
ad a
3 15
T r
28 00
H y
ap ple
T O
s ue
G r
34 7
ute n
Ġc le
Game r
14 1
Ġth ing
Ġg i
J p
R OS
o ice
lis h
k a
49 44
L h
A RT
en ob
c ar
E x
Ġhe ad
134 68
in ter
G aming
64 2
6666 66
C a
8 15
f er
27 6
Ms DBZbabe
46 2
Ġp or
L i
3 69
ic s
23 69
n B
Ġ .
Ġext ra
ĠE n
al a
age ment
mal ink
per malink
va cation
enob lade
Ġp ick
L os
35 7
W LK
g ame
68 130
Ġth ose
MA SH
o h
83 744
ĠEvery one
ie uten
jN t
28 64
WLK Xj
Ġd ue
Ġd ra
Dfg L
70 8
Ġdes ign
27 3
W C
ap tain
b ur
Ġflo or
Ġservi ce
89 0
th ough
Ġle ft
Ġse nd
ren ce
75 2
Ġis sue
28 77
l ist
84 5
Ġha ving
bo t
lo s
Ġcur ves
80 5
15 33
pe cially
I P
Ġm i
Ġmar ch
j d
j umpsuit
38 2
57 8
ĠM ajor
ri ght
Ġhow ever
64 4
2524 29
CE B
Ġhap py
Ġ '
t al
Ġfi g
U X
z o
Ġrent ing
N D
35 9
Ġc asual
35 2
ch annel
34 8
87 7
) ",
b re
Nintendo VS
E p
20 3
w here
vi sion
s pan
Mario Party
Ġuse d
y y
Ġ ce
65 8
O W
NintendoVS UK
67 9
ĠP erfect
Ġt on
Ġo ption
B S
Ġd uring
0 62
00 9999
us band
SuperSmashBros Ultimate
Ġco r
c g
Ġl ine
83744 1
3483 837441
100657767 3483837441
ĠG ame
4 18
Y ou
Ġcon fi
as on
di er
G f
50 77
28 2
ieuten ant
Ġp ie
80 27
id o
Ġpat tern
Ġb oo
30 93
orn ing
Ġhigh ly
cent roid
30 45
Ġle s
9 666
n ight
eS hop
Ġne ar
28 58
Ġ favorite
nt o
u str
VM AE
Ġhel p
L Y
ĠĠĠĠ ĠĠĠ
Ġf l
Ġrent al
Ġal ways
Ġja cket
n et
69 4
Ġne xt
DfgQ B
Ġfin ancial
w v
Ġal most
IN T
Ġe ver
Ġwould n
N ame
SmashBros Switch
i ls
3 14
ER S
Ġ ter
Ġco nd
Ġappro priate
ĠL e
X D
35 15
s g
h l
j uegos
ĠM a
l Jr
DfgV CC
AI zr
rY lJr
LD pU
DfgVCC gW
AIzr tw
at or
un ce
Ġ| |
Ġs te
il d
r ink
ĠCol onel
R J
7 60
Ġg u
Ġt ried
ĠAn ge
17 54
pan x
616 3
Ġwar m
reme ly
J m
S V
87 9
an g
ĠM o
Ġpo int
ri ca
1479 552
Ġv al
85 1479552
68130 851479552
9666 68130851479552
G orgeous
ĠN Y
66 69
2 17
1006569 95
R s
Ġpict ure
B all
R W
am i
18 3
q i
Ġres pect
Ġon ce
Ġ 32
Ġ tweet
Ġ medium
Ġba sed
N O
a e
j oy
ĠHow ever
5 34
id es
59 3
33 4
50 84
67 3
100657 85
a sed
49 14
36 6
99 8
Ġla st
n ess
j ust
er tain
Ġb ro
ud ca
f d
I V
Ġevery one
W h
Ġpl us
no bel
77 5
26 14
Ġis su
ĠAnge les
Ġgl ad
Ġ petite
pri ze
Ġcross over
y f
Y R
ti st
en ce
U T
v y
gi ving
Ġh old
h er
00 4
00 1
ho ut
irth day
in ed
t t
60 4
1006569 47
Ġsp ark
100657 34
Ġre ad
37 5
p m
10 72
Ġh ot
ĠC on
Ġ 34
riga dier
i er
th ers
ri st
880 8027
100656995 8808027
1006569958808027 136
Ġb lue
Ġl ate
9 80
79 0
20 2
60 5
Ġcom fy
48 8
ok ed
B K
Ġfa r
n ed
Pow ered
85 57
Ġgir ls
59 2
Ġp our
Ġp ull
Ġe ffe
i co
Ġch ange
Ġup on
Ġyear s
N S
ĠS nappyTV
Ġa way
5 24
99 4
el d
te ly
Ġwor ried
10064 05
ut ure
Ġw alk
Ġsome one
Ġch arac
Ġa mb
77 9
Ġhe m
Ġfor ce
15 26
ĠO ther
ĠPl ay
r is
48 67
. ,
ĠE ng
20 6
Ġexp en
i ther
o f
Y s
Ġdoes n
va nt
68 2
Ġh our
fin ity
- _
83 6
Ġes pecially
97 6
69 27
L E
Ġcons ider
Ġanno unce
Ġf riend
20 92
70 40
35 3
ĠB o
84 4
75 8
38 1
Ġkn ee
Ġe asi
Ġta x
r id
usi c
ĠG amer
Ġ siz
umb er
Ġthroug hout
B D
z a
100657 86
Ġsi l
85484 8
490 88
ĠC rossing
10 37
Ġam ount
Ġg r
ra nt
4235 854848
100656947 4235854848
64 18
ĠS MASH
10 34
d er
S u
G V
100657 27
Ġf riends
Ġany thing
Ġwor ld
Ġfi ght
Ġpict ures
2877 952
K b
ser v
1006572 13468
100657213468 2877952
10065 680
? ?
Pl us
ĠTh ree
w n
O C
818 824
k en
Ġsiz ing
Ġwh ite
y e
mand ing
3 64
50 7
32 2
Ġin form
ac m
Ġat ta
Qu VO
BF UwAET
DfgQB BFUwAET
QuVO Feb
DfgQBBFUwAET acm
E s
Ġext remely
r u
M a
69 12
85 4
G jo
n Nintendo
bo x
e k
T S
Ġrev en
vi es
Ġaw esome
HU gS
Gjo HUgS
in es
ve nts
L V
I Z
en ted
com fortable
r it
ad or
Ġc rossing
199 48
F h
28 6
2718 73
U P
Ġpr int
s ter
04 64
A m
Wk AE
13 448
11 160
ĠY ork
Ġh al
ronic les
10065779 13448
1006577913448 271873
100657 95
Wk AA
68 7
87 4
1006568 6
po lygon
VAAA a
cr f
118 400
Ġsk in
I MA
e m
Ji h
f es
r z
G G
470 118400
6924 11160
crf Jih
692411160 470118400
99 7
t imes
A c
39 5
rag on
2 14
bo ok
F un
Y T
ull y
97 39
h Bg
Q W
b t
ĠB attle
U S
D C
H o
ĠC an
54 24
87 907
hBg I
100657 57
Ġpl a
22 25
55 5
3 17
m it
in stagram
w QV
ge n
67 8
ro us
100 1533
45 2929
107 841
84 6163
ĠAn imal
wQV Vb
1001533 846163
1001533846163 107841
l im
10065775 87907
1006577587907 452929
X c
Ġh usband
8 834
R Px
nc jL
j Z
o ps
Ġt ri
Ġwa it
86 29
x ncjL
ZZ f
68 40
sh ion
4 77
Ġshow er
Xk AE
Ġro ad
C an
Q Y
24 65
O f
ĠHo uses
ĠR idley
ĠA t
E ZZf
30 1
ne ath
ter tain
ate ly
p es
ge s
Ġcom p
Ġch oice
udfa e
2 33
Ġunder neath
ul ous
DfgT X
m ing
Ġe lse
99 0
83 4944
C ute
45 3
Ġ Z
Ġ normal
ĠA ll
pi cally
3 16
006 34
l ie
Ġfig ure
Ġpla ces
iti ous
69 5
ĠThe y
me rica
064 4
Ġfe at
7 35
69 70
Ġfa shion
q U
Ġf la
Ġno thing
1006577 409
65 2
59 0
594 834944
1006577409 594834944
Q h
A t
45 434
1754 00634
8834 175400634
8834175400634 49088
tern et
c c
Ġdi ffic
Ġphoto s
55 4
en e
69 1
ri ter
ĠI N
Ġs c
ne y
70 4
in y
Ġcustomer s
Ġ ver
887 04
T ube
z VAAAa
30 863
Ġe m
Ġas set
Ġh im
30863 156
id ed
Ġamb itious
60 2
89 5
AM E
ĠTH E
45434 0464
X enoblade
Ġb irthday
ain t
55 9
EN D
Ġre st
35 5
Ġpro du
Ġf uture
un g
_ \/
Ġco ol
olid ay
87 04
ag o
na ke
Ġd ans
AU o
Ġo thers
EA D
e g
k N
1006577 64
Ġbig ger
je ct
a de
80 90
Ġmode l
ar is
55 15
50 15
Ġfa ir
49 5
300 88704
Ġwho le
Ġ- -
1006568 6418
10065686418 30088704
68 6
13 77
Ġ2 008
ĠL ove
ger s
ĠC aptain
18 475
100657 90
Ġp rev
Ġsim ple
Ġent ire
h a
Ġst ar
7 67
as s
Ġen joy
DfgQ z
30 66
+ ",
35 4
Ġcome s
Ġ unt
38 8
Ġor ig
47 9
Ġun comfortable
67 04
ic al
Ġb u
Ġk ind
k ing
p K
se n
12 194
Y Y
ĠG ames
2463 18475
n G
K az
P N
44 27
30 272
100657 309
10 57
Ġ vid
ug h
pe nd
n N
Ġdire ct
3 27
E Ox
149 3815
100657764 1493815
1006577641493815 298
S r
W c
ap i
79 5
Ġpa ired
83 425
Ġso l
15 264
15 19
Ġty pically
EOx w
en n
c tive
NintendoD E
L ets
100657 07
ee ts
pl oy
Ġp in
p X
it al
Ġn ude
P ro
ĠA l
n L
usi ast
Ġ18 62
si te
Ġnoti ce
339 2640
10065697 4867
100656974867 3392640
g l
Ġco ver
49 008
10065779 358
12194 304
10065779358 12194304
ur ch
ut s
an k
Ġt imes
ĠN ot
Ġg re
70 198
d M
Ġse ver
and s
UwAA w
Ġmar ke
462 272
Ġfor giving
100657309 70198
10065730970198 30272
ĠSt ates
R S
70 7
exp o
ĠS he
10065729 949
Ġs we
HH HH
Uw AUo
10065729 743
10065729 83425
UcAA NN
YC UwAAw
DfgQy YCUwAAw
Zp b
kt UwAUo
3045 8629
DfgQz ktUwAUo
49008 896
10065729949 30458629
10065729743 49008896
1006572983425 462272
DfgQyYCUwAAw Zpb
Kaz H
j son
Ġg ave
37 2
ca st
irai CEO
KazH iraiCEO
f R
b i
39 86
240 5015
2405015 897
1006569 0
D o
a ir
Ġb re
Ġ 36
l ace
c us
39 6
Ġtr ain
Ġcont in
Ġeasi ly
Ġout fit
Ġg amer
P r
M o
ĠD E
Ġcommun ity
53 2999
Bg B
100657 33
Lets Go
532999 756
4 26
Ġunt il
Ġl ife
St an
Ġ ti
a is
Ġc ertain
autif ully
850 84
Ġst ick
Ġst op
Ġo be
Ġde c
m is
Ġex pect
Ġpo ssi
Ġw eek
Ġba d
50 9
4914 85084
ĠDe finitely
Ġte ll
A S
ĠF it
ir st
U B
age d
Ġinclud ing
y w
ĠL ieutenant
G S
A d
184 32
v F
Ġclas sic
b m
Ġto ok
ch y
10065789 5515
405 1072
100657895515 4051072
ou th
fa nt
Ġw inter
t d
Ball Plus
Ġa llow
ĠR o
Ġac count
D S
83 84
25 15
P BgB
30 89
c lo
30 60
tertain ment
ĠD on
Ġnice ly
ĠS O
Ġsever al
ig ner
5 16
R A
36 1
ĠC ity
33 3
87 3
v Z
Ġle ast
1006572 12
do or
Ġtro ops
4 12
ĠT e
59 6
Ġbe low
ro ng
Pokemon LetsGo
Ġpos ition
riga de
O D
Ġsho es
Ġinform ation
H P
Ġcom fort
ĠT o
D ress
Ġn ue
k l
304 64
Ġatta ck
E T
70 56
ĠG ot
s ing
9 88
Ġincre di
Ġrespect fully
15 24
5084 80
Ġmo vies
J o
Ġs ugge
n R
Ġe qu
Ġwo men
S w
19 17
Ġe vents
484 80
M X
iz e
am o
100637 039
6927 508480
100637039 6927508480
Ġpie ce
B j
Ġinte rest
ĠT V
ĠCom manding
Ġre al
Ġst ay
z i
ig i
serv ative
Ġreven ue
Ġoper ations
Ġpl an
ute s
Ġn umber
39 3
vA k
ĠU ni
W z
qT M
Ġh oliday
26 49
9739 4427
48480 18432
97394427 4848018432
I M
he ars
Ġwe ight
D Q
24 2
10065787 38
10064 110
ri e
hears al
k i
Ġe ither
Ġarri ved
A nd
N L
E o
v Y
19948 2369
1006578738 199482369
47 1
p on
70 5
ĠO ne
ste ad
p B
In stagram
W AA
Y X
A we
99 5
100657 20
100657 97
29 90
38 60
R M
ĠM an
Ġspe cial
Awe kq
si s
70 9
G et
E d
Ġflat s
b ut
26 64
R ich
9 00
ĠA ct
ĠR oy
UYAA J
ĠTh at
1006577 48
50 8
Ġobe di
22 3
79 6
Ġin stead
9 33
18 40
INT END
30 63
Ġbe autifully
3986 305
Ġt ors
Ġac cess
L T
637 3986305
Lh D
100657212 6373986305
ew is
D uv
Ca fe
at LhD
Ġst uff
Ġgir l
DfeZ Duv
DfeZDuv UYAAJ
60 6
ĠT ra
rest ling
m g
Ġdres sed
c f
S p
300 1
ĠW ore
Ġne cess
Ch ronicles
Ġd am
87 8
L XUAA
n J
Ġ20 21
116 48
D i
u to
St ation
4 67
D X
N A
f tw
Ġan imal
Xenoblade Chronicles
Ġh u
b d
OT l
o x
100657 43
33 67
Ġl ay
425 1
24 64
79 4
Ġsl ip
ma xi
fes sion
13 54
ĠW ill
Ġad v
Ġvideo juegos
84 6
Ġp ast
55 6
ĠO F
52 33
z v
an e
29 76
45 4
2 36
j v
q p
N T
Ġwo nder
65 47
Ġb right
ge ther
70 88
XU AE
VER Y
B U
z er
S y
ret te
Z L
e v
Ġany one
Ġth ree
u es
12 26
83 15
25 32
Ġt al
ĠD irect
Ġsome times
Splatoon Cafe
10065779 1037
Ġbe lt
18 34
80 4
mp IG
DfgV Rs
8090 496
LXUAA mpIG
100657791037 8090496
DfgVRs LXUAAmpIG
L a
12 69
ĠRe view
Ġtors o
89 8
210 60
3483 49
h s
Ġte ch
dit or
ien ven
Ġpur ch
ftw are
100657 53
J T
f u
Ġ 38
24 1
49 348349
1006405 49348349
100640549348349 5424
Ġ rib
87 99
ĠG o
ĠĠĠĠĠĠĠĠĠĠĠĠĠĠĠĠ ĠĠĠĠĠĠĠĠĠĠĠĠĠĠĠĠĠĠĠĠĠĠĠĠĠĠĠĠ
Ġmy self
Zelda Universe
26 61
WAAA g
ĠJan uary
650 6669
wv WAAAg
10065686 6506669
100657748 21060
wvWAAAg OTl
100656866506669 2614
10065774821060 11648
h i
Ġ ment
re w
Ġto uch
Ġneck lace
Ġsi gn
Z K
Ġfa ct
Q ue
Ġgener al
n H
Ġpr in
Ġso bre
Ġasset s
8 28
14 16
Ġm iss
Ġmo nth
13 4251
65 61
ĠĠĠĠĠĠĠĠĠĠĠĠĠĠĠĠĠĠĠĠĠĠĠĠĠĠĠĠĠĠĠĠ ĠĠĠĠĠĠĠĠĠĠĠĠĠĠĠĠ
B ienven
Ġj umpsuit
mas ter
9 13
27 07
P i
S tr
Ġmak ing
Ġcom b
Ġday s
ler ts
D l
J ust
X W
Ġs or
Ġma in
Ġdiffic ult
ĠR un
28 1
j k
Ġsl it
L l
P S
c C
lo rette
Ġcont rol
100657 50
S an
a di
io d
Ġlove ly
ci a
fant ry
T E
at ur
30 55
04 32
Ġcharac ter
44 5
2 38
B R
z S
Ġcompan y
Ġcont ra
lat tering
NintendoSwitch C
xU Qu
cg K
n l
t te
ĠEn tertainment
d c
ĠF ran
ie f
Ġle ss
14 60
V G
st on
P ri
Ġs uc
824 8
P X
on or
10 47
ast ic
Ġse cond
Ġin ter
iz ed
Ġout door
Ġre hearsal
ke mon
J U
u K
ul ti
F b
10 77
il ities
Ġo nto
lect ronic
bur g
m u
4 178
18 17
Ġde velo
Ġpro per
Ġpo p
ba ll
Ġservi ces
8 65
G ames
T y
j c
67 338
e st
89 4
44 46
Poke BallPlus
a bly
je ux
8 49
a vi
Ġcommand ing
Ġcon servative
Ġm ust
Ġpe ro
on y
AA d
Ġdeta ils
Ġac ross
val ry
0 22
7 88
a N
k es
36 2
Ġcon cer
G E
87 70
un ately
S P
Ġso on
4178 67338
A J
jeux video
Ġd a
k U
Ġ ord
100657 39
30 82
s a
ĠF OR
mi ly
8 33
ream s
80 6
e y
99 6
Ġobedi ent
Ġser vant
Ġannounce ments
t f
53 6970
152882 18
av age
fession al
536970 379
Ġshould er
Ġment ion
G ust
Ġs w
ta il
ĠV ideo
Ġother wise
47 8
1006568 633
16 16
67 68
13 44
Ġca valry
18 2
Ġl ining
ie l
87 8248
os ter
ĠRoy ale
J I
e ro
n T
00 99
ĠB all
ward s
Ġs panx
Ġh er
Y o
59 74
d f
79 3
G P
ow er
29 3
Ġpo st
2864 00
437 286400
1006568633 437286400
w C
in o
S n
q o
ir ty
V m
32 1
O H
ĠLOVE D
100 9
Ġd er
Ġshow ing
Ġhal f
1006570 50
17 2
x x
id ge
Ġcom mon
or g
10065700 878248
10065700878248 30464
1200 6912
1006370 2858
10063702858 12006912
ut ant
90 4
E U
D T
100656 83
ĠA f
022 330
Ġp ay
s k
Ġis n
ma ke
Ġbrid al
7 25
ll ing
87 6
ĠF an
Ġval ue
Ġm orning
L j
Ġc up
ĠD is
27 570
ĠX S
g U
10 13
Ġfor ward
D J
x R
ĠH igh
M an
Ġsa fe
Ġ2 007
Sr ta
j M
m l
Ġin for
80 35
al ia
Ġre co
y U
b ility
ro mper
ĠS nake
Ġle gs
Ġoffi c
ti v
j utant
Ġm ind
Ġto day
fil i
lu u
94 67
h ak
g y
U L
z z
1006578 26
Ġ ","
r ings
N F
1006570 8704
ca nt
Ġto t
44 4
a ction
ĠO fficial
27570 180
10065708704 27570180
P aris
s p
J e
00 5
59 5
N e
re ly
46 20
Ġun a
i v
ĠEx po
The E
Ġs at
Sh ark
FZ zo
CV HP
Oh CVHP
OhCVHP FZzo
C las
Ġ ground
Ġ 39
79 7
Ġstr aight
Ġ 35
77 4
ĠC or
Ġn er
Ġmi les
c u
ĠJun e
18 14
90 5
log y
J on
Ġ esc
ĠB ROS
D is
12 96
Ġstate ment
Ġh or
M W
ĠU S
as ter
330 89
E l
Ġcle avage
Ġc l
Ġper iod
152882 19
44 33
Ġbr and
Ġfollow ing
Uw AAM
ide nt
Ġre ason
K N
u ber
Ġpre sent
Ġb atter
Ws AI
Ġpri ce
c XM
es ter
80 2
Ġpas sion
V t
Ġa ssi
ĠE lectronic
Ġal though
k u
Ġc ash
d WAAA
f x
Ġo k
E AB
Ġar m
100657 19
55 7056
26 2
4 66
H O
100657 96
bo y
Ġrev eal
h B
Ġw rink
26 3
1006574 24
F rame
g in
st op
fe rence
DfgN pB
10065695 15264
UwAAM hak
1006569515264 557056
5 10
97 4
x G
Ġ ros
tent ion
Frame shift
Ġd ou
Ġac qu
Ġ *
re l
di es
Ġbe lie
f l
Ġtot ally
Frameshift Shark
I v
Ġcond ition
n W
w l
g ing
34 89
A D
r s
13 65
Ġadd ed
n We
IF M
A z
003 27
1006568 475
ge t
Ġsugge st
g u
t k
84 3
15 20
Ġt ad
R idley
( \
10 69
150 815
69 325
Ys j
TheE SA
150815 8799
28 684
- \
I K
302 33089
le ase
818824 4446
IFM hl
Ysj IFMhl
8188244446 30233089
9 29
n ew
u M
ti lle
ap po
Ġros ter
Ġc al
g mail
45 34
fort unately
EN T
DF EC
Ġbut t
Ġpa ir
H T
si ve
40 4
I m
28684 00327
100657 49
ĠP r
Ġ ve
as ing
608 64
me s
an a
F l
dd d
a il
es ted
ri o
Ġord ers
25 6704
95 3
35 285
Ġre ma
Ġhe ight
Ġp ref
19 44
Ġpro vid
U W
z X
10065787 69325
1006578769325 256704
z J
Ġh ug
dis cord
re amer
B A
Ġim pa
d q
min i
Ġsur pri
84 2
tille ry
R Y
G m
89 12
1006569 68
504 59
b k
ĠB rigadier
Ġmay be
H K
Ġd ark
67 49
Z F
Ġsh irt
25 77
1006574 3367
5974 6561
10065743367 59746561
75 84
Ġba ll
h h
f B
18 909
fo x
13 93
c Q
Ġe ach
118 464
u ation
Ġch ose
T J
Ġlate st
Ġca se
4 87
39 8
O fficial
eg as
v H
Ġflow y
K L
29 2
14 40
05 6
Ġsit ting
at o
up port
UE AE
_ .
b ile
ma ch
19 1
ug ht
36 112
AAP Tw
10065786 18909
1006578618909 118464
Ġtal ler
F P
k n
nobel Pri
id a
Ġar t
ĠĠĠĠĠĠĠĠĠĠĠĠĠĠĠĠĠĠĠĠĠĠĠĠĠĠĠĠĠĠĠĠĠĠĠĠĠĠĠĠĠĠĠĠĠĠĠĠ Ġ
K g
100657 60
48 1
or ld
co oked
Ġfab ulous
x C
C B
u u
284 5077
RW d
8557 568
1006569 708
DfgS BM
670 84
10065743 2845077
dWAAA RWd
100657424 8557568
DfgSBM dWAAARWd
100657432845077 7088
1006574248557568 001
H C
g Y
ok s
Dfg UY
M er
7 47
100657 70
Ġoffic ers
ea led
c d
8 14
Ġent h
Ġoper ating
h S
ve red
ĠA c
Ġear rings
Ġem ploy
q Z
Ġrev ealed
Ġtry ing
A f
64 1
O X
Ġn on
ĠUn ited
Ġdec ided
co r
Rich ie
P E
Ġex c
27 20
ĠC ount
Ġso ft
ĠE mblem
Ġresult s
064 5
3860 48
n U
p D
10065769 36112
1006576936112 386048
r and
ĠI s
30 87
Com fortable
Ġim media
Ġba by
b rant
H xp
T a
am os
ck tail
Ġissu es
ĠI nd
Ġwe b
4 39
s OE
100657 83
ĠN e
2225 8315
100657 28
G u
port s
Ġg ala
2990 593
Ġf our
97 5
C ol
74 67084
hq Hxp
8770 7467084
sOE hqHxp
87707467084 2990593
V l
or th
ca mp
Ġcur vy
Ep T
in ation
p ress
16 96
27 84
Ġrel ated
AAAA AAAA
c is
77 8
Ġwe ather
265 5233
Ġdis appo
735 2649
2664 2655233
7352649 26642655233
30 42
2999 0
Ġexce pt
55 8
\ ",
39 52
14 88
ĠS qu
l ic
Ġp ants
ce ed
ĠS T
Ġd u
Ġg one
47 6
re ady
Ġagain st
645 12
le x
ĠO ctober
P G
32 65
698 17
n UEAA
15 23
ĠNew s
85 907
808 256
1354 60864
1006569708 135460864
ĠL ink
Ġjo ins
Z P
t I
Ġo ld
Ġad just
nUEAA DR
h EpT
en NO
E m
DfgN z
ca de
str ict
27 39
Ġcan not
F id
ĠV egas
29990 2465
we l
Ġreg iment
10063 69817
1006369817 299902465
D d
T F
ur a
Ġsize d
47 3
i QV
79 04
Ġne t
Ġus ing
bs c
ĠI T
vZ q
G R
ĠR ent
ude nt
Ġb on
ĠS W
ad ing
AA vZq
04 30
ZH cXM
DfgUY iQV
Fid ZHcXM
i ver
ver cooked
97 3
Ġca mp
10065784 85907
1006578485907 808256
N ot
Ġlo ss
ĠF ortnite
S E
Ġsl im
ro m
Ġeng agement
L OVE
ler s
L L
100657 40
su OE
Se IP
suOE qi
SeIP suOEqi
9 83
ĠAn ime
an te
bo ts
3815 168
474 3815168
100656968 4743815168
B UYAA
che lorette
j q
is ing
ed a
S T
or a
um p
Ġco ur
9 266
B k
35 68
75 39
ĠR ep
A P
I q
n In
1006578 60
Ġmarch es
b or
53 60
65 3
or ies
30 92
Ġt urn
6547 456
7 14
is on
Ġin vest
p ar
26 73
36 6547456
DfgM sg
1006568475 366547456
DfgMsg BUYAA
Ġto gether
ĠB us
E n
M t
ĠPo kemon
c at
Ġre cei
ĠRe ceived
2 83
100657 74
ad er
79 49
Ġje ans
70 6
1006578 64
Ġfe ll
ar ter
320 1
ĠM A
ĠL et
14 24
Ġex cl
Ġba chelorette
064 8
B ar
S Y
L ewis
76 1
50 39
E O
th or
ĠS er
? ","
in er
Ġs mash
le n
ĠF ort
Ġsuc cess
E K
E t
QU ART
mis sion
v ous
152882 20
V X
Ġpossi ble
Ġfa nt
SmashBros Ultimate
Ġli ab
ifi cant
fa ce
245 2022
10065707 2452022
100657072452022 2728
18 26
N j
1006577 8035
Ġb lo
Th at
25 3
Ġop in
30 46
ĠCo nt
Ġp ink
616 64512
10065778035 61664512
ĠP e
W o
48 81
A W
In finity
Ġshow s
rY Fb
SN rYFb
Wc pX
WcpX SNrYFb
27 47
Ġg aming
Ġtight s
10 40
Ġde st
Ġphoto graph
7 68
B lue
J h
30 3
Ġf ree
Ġf rame
ag a
Ġinch es
9 77
k h
2 000
Ġs m
100657 62
Ġh onor
SV J
Ġd one
12 50
p en
ĠA ND
VMAE Y
F O
w ide
Ġfin ally
ĠWh en
VMAEY SVJ
w g
23 18
str u
Str ing
T s
location String
il m
Ġclo se
g aming
on ic
Ġca pt
G sy
ĠJ ust
d ta
c ing
ĠW as
n D
10065 65
17 28
Ġhee l
in ted
Gsy Q
dta GsyQ
Ġco sts
45 8
Ġple ase
26 15
ĠNo ti
EAD QUART
EADQUART ERS
re nd
l ight
Ġhel d
O i
l v
55 3
Ġse cur
ON E
Ġnecess ary
ur s
100657 76
ĠF irst
uk i
17 1
Ġ: )
ĠA U
F i
80 3
Ġal ready
por ted
Ġca p
H u
and o
H t
6 19
w S
Ġco cktail
R E
Ġcur rent
country Now
39 1
Ġro mper
18 35
A X
E J
ist ic
Ġner vous
U s
d T
Ġ indi
100657 886
d le
te red
Ġcomple te
Ġ rat
14 99
26 82
ĠAd jutant
ĠM et
9 120
ro ad
Ġcom pet
Ġla ter
ais y
Ġenth usiast
Ġ 37
Ġvi brant
Ġpor tion
5 12
b n
ir l
ĠD es
06 31
Stan Lewis
in ch
y n
5 88
ĠD i
Ġ set
Ġrequ ired
Ġwo und
b log
Ġ cause
60 1
se ction
V T
Ġpar tic
Y h
ĠO r
36 67
!! !",
pa red
vers ity
G AME
97 8
Ġcompl aint
m h
ĠJ uly
Ġswe ater
Ġin k
Ġlow er
I f
17 44
ĠW ith
4 49
1006575 378
pre sent
Ġta ken
U p
L S
Ġdi e
19 57
ĠG old
atch ing
D r
ĠE cho
Ġa nn
g T
ĠSt ate
am s
25 00
Ġoffi ce
j or
ard s
ac count
ER E
Ġweek end
79 8
809 856
ĠAr my
Ġb rigade
100657 44
Ġfighter s
26 06
69 190
art ment
Ġsto mach
d J
ĠT O
ĠL i
b T
Ġm usic
Ġde pend
H nM
m U
ĠM ew
Ġwonder ful
lan ce
Ġe mail
456 64
Ġfan cy
640 3201
195 6403201
100657886 1956403201
Ġcomple ments
ma ci
nintendo e
br it
9 89
Ġpassion n
Ġla dies
f Lu
ach ina
AM ah
1006575378 69190
100657537869190 7584
O B
at ic
1006577 87
to tal
Nintendo A
ja cket
le t
yw HnM
ywHnM fLu
100637 09
Ġwork s
ĠD aisy
69 40
Gr r
u Q
ar fox
R y
q K
ĠP ri
nM ajor
and ing
ic ago
Ġsign ificant
9 87
75 3
di va
Ġch arge
Ġhu ge
1006569 56
Ġw ide
Ġpl at
r F
30 88
mo bile
z n
se ps
total diva
totaldiva seps
1006577 69
Ġre ady
Ġ vari
ĠT r
J u
19 29
u ed
7 17
y ing
Ġje wel
ra bb
t W
DfgO J
UP ER
if orn
v re
10 56
F AB
X b
24 48
Ġsee med
Ġre ach
Q k
w ord
77 20
OOOO OOOO
it ions
10065726 89
Ġshow ed
f T
ĠA N
Ġwith in
to ck
633 5
d n
22 1
Ġsa w
Gust arfox
4 50
X Z
28 61
66 16
ĠF ighter
18 20
i P
Ġmonth s
Ġdevelo p
5 77
j W
stat ion
18 18
cho ol
t Y
12 37
35 624
Ġfeat uring
28 47
t K
u w
ĠRe g
nd on
ge d
10 84
17 40
J RJ
Ġ ed
a x
100657 47
80 80
AA e
anc ed
Ġ Zelda
15 36
Ġle t
al iforn
ĠF ire
Ġwor ry
fi cial
13 27
ĠF in
Ġme et
b Q
34 88
ssi stant
la zer
Ġeffe ct
ĠD o
CE OS
JRJ CEOS
JRJCEOS qp
5 65
Ġle g
Ġfant astic
Ġg uy
Ġbelie ve
O V
en se
Jon ath
x z
k J
ue l
33 1840
face book
g w
100657 04
O P
ĠG aming
10065777 28
Ġcompan ies
L M
ĠS u
. \"\
B C
po sed
69 607
ĠF inal
Pl ay
In ternet
Ġ pear
ĠEng land
C l
Ġhel ped
Ġexcl usi
N v
Ġap pear
697 60
b l
c Z
ing ton
Ġd eep
z ed
de nt
1006569 70
Ġstr uct
50459 4433
1006577728 504594433
27 05
F a
27 1
IG N
R p
82 35285
69607 331840
8235285 69607331840
C S
Ġ 100
5 60
Ġin come
umb ers
un te
654 656
44 15
265 0
v h
9 67
nt y
av al
YC S
Ġ18 63
city Now
Z U
b u
7 30
80 48
Ġwor th
v M
a ways
Ġm ulti
f S
cR xR
cRxR YCS
F or
j S
ĠT X
2515 654656
100657050 2515654656
1006570 25
100657 23
Ġdes igner
Ġtech no
Z V
xG t
48 6
O n
re ct
str uct
13 75
Ġtr a
y Jp
39 87
DfgV Grr
WsAI i
DfgVGrr WsAIi
N I
ugge d
? \
70 2
IMA TE
Ġjewel ry
l in
Ġac com
Ġn erd
256 000
LT IMATE
Ġh ourglass
Ġr is
t ap
647 37
66 2
Nintendo S
aliforn ia
9 84
W S
ar a
Ġso ftware
Ġex act
AC K
Ġpref er
ol unte
r im
Ġde f
p H
w y
27 27
nt ro
Ġworld wide
B lack
60 65
S d
Ġw on
12 76
Ġsa les
C m
10065 66
E V
Ġde ter
Ġconfi r
9 85
B B
Ġper for
amo rous
v O
21 17
N y
Ġrequ ire
b v
L ER
P e
37 12
Ġgive aways
ĠM AR
R u
g amer
it o
Ġfi re
K i
Ġt ighter
ĠE ven
377 17
218 89
Ġsub ject
ĠFran cis
h E
12 6335
Ġ: )",
760 7539
1377 409
9120 7607539
91207607539 1377409
Ġh an
res sed
Ġl uch
nd o
ex y
po se
Ġag ree
olid ated
ĠT urn
Ġim p
u me
26 65
Ġsha res
O cto
Ġf ur
Ġl as
H B
L x
unc ed
P T
100656956 37717
10065695637717 64737
80 907
Ġbust y
V ideo
X X
18 05
Ġli vest
ĠC a
A mazing
Ġimmedia tely
48 21889
i ble
te mp
Wk AI
Ġorig inal
A VE
Jonath on
ĠD ornbush
Ġsc rat
z u
z GV
w bk
st ance
59 7949
58 339
949 31
80907 597949
80907597949 4821889
j y
Ġat tention
4 29
8 17
O k
b c
87 84
49 3
48 2
Ġret ur
qu i
16 61
69 60
06 39
ĠL ite
12 47
Ġb reat
2747 94931
Ġba gg
Ġdra w
xi co
516 2861
P ush
ĠBe autiful
r x
cto s
Ġim port
Ġpa id
F G
un k
Ws AE
8 19
Dfg H
Ġch ic
4 24
Ġco vered
Ġar tillery
R i
NintendoA merica
80 1
57 337
or able
tw ork
ti W
ĠT witch
Ġincredi bly
Ġlivest reams
A w
Ġin t
37 1
Ġba nd
Ġplay able
H ollow
003 2
GS Universe
I l
Ġ name
tweet bot
eTweet bot
tap bots
v K
EC T
kq ar
vre P
33 2
34 41
ĠS p
n k
100640 1077
57337 3952
1006401077 573373952
I AL
Ġmarke t
Ġs and
S x
A q
Ġh ome
ĠR iver
6749 312
ĠNoti fications
100657 37
ĠU LTIMATE
1525 65
R w
; \
V J
32 3
fer red
87 9467
EL Jp
58339 6749312
879467 583396749312
ELJp tiW
lu igi
il it
B c
S ty
in i
ĠD LC
30 14
86 2
D I
66 3
Ġreveal ing
10065769 28
4 65
ĠHigh ly
/ /
39 40
9 57
Ġl ines
id luigi
ver age
4620 69760
rabb idluigi
1006576928 462069760
Ġhour s
Ġc uto
1527 270
1527270 685
4 85
Ġkn ew
ĠFrancis co
100657 10
13 888
F W
Ġus ual
a ign
Ġs ad
7 39
Ġfe min
Ġpre gn
g ar
M T
30 76
25 2
34 56
Super Richie
K k
33 1
Uw AE
Ġpr im
ĠL a
I s
ER AL
: //
Ġh op
ra p
et ro
8 84
e mon
h r
ĠE VERY
ĠRep ort
v l
152565 1416
E Q
Ġcar ry
2739 200
Ġfi x
Ġpr ison
Ġje u
d k
":" @
Ġd ata
A i
m X
ed er
1006370 35624
100637035624 2739200
8 26
ne es
7 40
P h
v ide
Eo fi
Ġme as
id s
9 27
100657 35
100657 56
ar ch
6 38
Ġhe ard
10064 11
one y
a ses
044 2
ci o
uck s
19 52
Ġprev ious
15 15
Ġm is
word press
A F
69 44
x u
9 70
Ġ fil
UY AE
Ġver sion
Ġmention ed
Ġorder ing
29 60
m d
g ree
25 60
Ġk nees
100657 640
I B
age s
ĠCh rist
10065753 1460
H k
37 88
30 84
27 25
Ġl im
064 6
3 10
Ġ( #
DfgV c
ari ly
Ġmo ved
Mer i
5 30
Ġon line
ĠCount ry
2 122
ach u
Y our
Z z
f cr
y d
10065755 7904
1226 752
100657557904 1226752
fa n
15 18
Ġc ult
po s
C s
06 28
Ġmove ment
Ġs ing
557 177
39 608
DfgW I
294 2464
100657025 557177
100657025557177 1393
und ing
ar ters
ad rid
I ON
ap s
07 2
100657 68
Ġri ver
Ġoffi cer
g t
a AN
te l
im os
Ġpro fessional
Ġpurch ase
100657531460 2942464
e f
ro r
ĠY ear
ĠYou Tube
Ġbu ild
an na
14 25
Vm rY
39608 1365
aAN VmrY
C on
53 2673
id n
Ġse lf
1013 532673
100656970 1013532673
ph istic
Ġs witch
Ġt iny
Ġad dition
li ke
Ġa nt
ad s
Tw itch
phistic ated
F ilm
R j
EN ERAL
Ġrat her
um my
AA xp
152882 17
DfgV yy
Ġexc ited
AAxp KN
DfgVyy CV
h P
55 31
Ġca ref
f ord
st ly
1006568 9
h K
ĠF ant
J N
s m
Ġin tern
ĠO N
man ce
V hs
Ġb unch
co de
ut ion
Ġha ir
Ġcont ain
g C
34 2
265 5360
cus sing
H W
10065 81
ĠGold en
h u
218 5039
2185039 897
P retty
Z A
25 71
39 09
426 90
i G
l z
5 17
P O
R K
Ġh id
Ġh and
04 3667
100637 043667
100637043667 2655360
7 55
Q T
Ġst ars
Ġgi ven
Ġspark ly
TY N
7 57
M Y
Ġ vers
ffe ct
Gf Vhs
TJ GfVhs
TJGfVhs TYN
8 29
Ġwe ird
Ġar tist
1006575 47
1006573 1834
7720 7040
10065731834 77207040
Ġhel ps
Ġnotice able
30 53
34 40
AA j
ĠS eptember
04 38
H V
ĠOn ly
Ġn avy
yo jm
3 000
Ġh ugged
N ice
n u
Mar vel
il ler
Ġple nty
g le
g ni
Ġth igh
98 87
orn a
Ġpartic ular
U k
Ġfa mily
Ġstate ments
O G
Ġgr ad
Ġ bar
Ġo ficial
32 32
Ġpro ceed
od s
$ \
er ma
j f
Ġto ld
VQ AU
rib utes
Q R
a os
Ġin fantry
F an
il led
14 76
26 00
Da emon
4 59
T M
z Z
ĠI L
95 6
574 2682
100657640 5742682
1006576405742682 112
R Vt
Ġmid dle
32 00
Ġad ditional
177 308
1680 177308
1 136
V vol
Ġgot ten
ROS S
Vvol RVt
at ure
di ce
Ġd ri
am A
Ġcomple tely
yf riend
Ġbagg y
24 69
ub lic
fili ate
Ġli ve
9 69
H Z
f lo
ro om
ĠV ers
Ġac cent
ĠMy th
S K
c z
d ata
ĠTH IS
Ġconfi dent
4 68
H TR
i or
u z
str y
st ing
an ces
P U
20 27
Ġsh ip
ĠRun way
| |
Ġre ce
19 1296
109 20
Ġ tend
59 22
ĠE ditor
Ġboo bs
84 85
55 68
p al
Ġth in
Ġex ist
D ragon
Ġbatter y
Ġbo yfriend
Dfe a
INTEND O
s n
w atch
ES S
d XcAA
1006578 858
Fit s
C ar
25 18
Ġv o
Ġevery where
4 69
ĠS ome
ĠMar vel
100657 42
ĠAf ter
15 14
ĠC ROSS
Ġh ip
299 191296
You Tube
dXcAA XW
1006578858 299191296
6913 92
an ime
gg J
Ġreturn ed
DfgO fR
VMAA pD
aval ry
VMAApD mu
ba sed
ex as
ch ed
25 39
oh n
Ġl bs
ĠM c
24 3
Ġanno unced
l ay
kt K
Ġd ut
968 506
J ggJ
M B
] ]
p at
la ure
10065726 780
bb JggJ
Jr bbJggJ
1929 3441
2571 19293441
968506 257119293441
j r
Ġoff er
Ġst ood
130 42690
Ġal ong
Ġfl irty
10065726780 13042690
DfgQ gY
Pz ktK
PzktK Pl
":[ [
H R
":" _
m B
ge nd
es se
27 328
Ġne g
SS B
Ġesc uch
D W
57 2
f k
Me ro
H gi
\" .
c ure
il ar
Ġfi eld
so cial
A K
67 1
36 20
ik achu
X E
Ġ x
ĠA m
Mr VQAA
100 633
85 37
1006573 140
15 17
bo unding
112 112
103 12
Ġplat form
J a
V R
ĠR oster
ni a
ĠCom fortable
100657 859
nn e
04 35
DfgQ u
Lo ndon
IL L
ch ange
ĠLo ver
att ributes
J de
g d
Ġ ~
Ġreview ers
M D
30 58
IMA L
15 69
13 40
60 96
":[[ [
link s
Ġ( \
Ġinfor maci
f VQAU
Ġd rag
Ġit chy
aa ist
qT N
NL aaist
DfgQgY fVQAU
Jde NLaaist
DfgQgYfVQAU qTN
ens ation
ri ck
B u
{ }
": {}
170 79
":{} },"
X R
und er
]] ]},"
Ġ prote
44 1
Ġt us
Ġt ummy
25 07
C ube
r k
Ġg row
Ġhe art
837 691392
ĠOther wise
1006573140 837691392
P L
10 15
30 56
Ġhigh er
ty pes
Ġw ee
Ġp age
Am ount
40 2
prize Amount
12 27
ĠS ent
d s
Ġw ed
24 33
V VMAA
w a
ra c
ĠN O
Ġbo dice
nobelPri ze
ĠA pril
Ġdi vision
Ġ ,
ĠA merica
h ref
Ġc r
Ġpro g
195 84
Ġgl amorous
ck ed
Ġin stant
11 65
ĠCROSS ING
n https
w o
Ġ ist
I r
te m
Ġlo ver
118 08
nobel prize
master data
masterdata api
7 28
14 69
14 857
ff ort
nintendo europe
Ġout side
c up
1006578 10312
3087 360
100657810312 3087360
Ġweb site
Ġre ar
UY jL
Ġv ot
wh ich
875 135
Ġsafe ty
J G
fi ed
us ted
laure ate
ap ed
dd WAA
Can Nv
DfgVc ddWAA
UYjL S
DfgVcddWAA UYjLS
Ġsh are
78 65
100657547 875135
100657547875135 4881
ĠT ho
N erd
k ling
856 192
ĠMe di
D an
M orning
680 1
41 12
58 87
ll a
Ġaccess ories
Ġ country
50 1
93 15
Ġwalk ing
B E
l P
ĠC avalry
XD v
67 407
Ġch ested
95 40
ci ous
Ġnue st
10065780 55
R ented
Ġl leg
ĠIn finity
69 20
Ġ[ {"
Ġthick er
r f
12 55
vH XDv
amA ko
vHXDv amAko
83 97
152882 00
K night
ĠW restling
6 18
? !
Ġ 40
fi eld
Ġpregn ant
UEAA l
ct or
75 49
I X
Ġma jor
33 37
B h
84 07
ĠFant asy
5 82
9 28
Ġpo der
lim ited
E i
x Y
Ġre ported
Ġse en
u a
Ġsm oo
100637 67407
363 14857
10064110 36314857
6616 7040
10063767407 66167040
1006411036314857 472
v ie
Ġ ide
AA O
47 96
180 69
212 65
Ġe ye
Ġwound ed
19 68
26 1
ult imate
' '
it a
20 60
100657 54
P H
o red
Ġincre ase
P R
at ile
E db
04 87
13 76
St unning
100641080 2318
ash ington
Su JU
1006410802318 856192
5 44
n es
ĠV olunte
la st
out uber
2707 86
H i
T W
11 14
h p
vi ce
Ġpre g
63 69
F o
12 19
ER Y
UR G
G h
Ġ er
100657 18
10065777 21265
1006577721265 270786
D u
M ENT
Ġare as
F inal
Ġadv ance
l or
Ġcomfort ably
ilit ary
ad ow
75 1
uts ch
Ġat tended
83 1
ot al
k z
r r
ĠT orna
J P
152882 24
3 496
Ġsty lish
Ġnuest ros
O vercooked
Ġexact ly
l ig
RA yojm
1835 52
RAyojm u
C y
100657 169
ĠM ari
87 77
p ping
Ġor gan
d cast
Ġp ol
ĠB ACK
809 40
Ġpreg unt
30 61
Ġexpen ses
Ġperfor mance
en g
Ġprodu ctos
29 1
47 55
Ġte mp
Ġho pe
59 8
11 17
326 26
7 16
10 79
75 4
ĠH ar
140 8
Ġgre en
44 49
14 68
Ġc age
ĠTw eets
Ġpro m
10065 5
ho ld
Ġshe er
e ba
32 30
Ġpregunt as
ĠAc count
ĠD ep
Ġrespond er
Bienven ido
er ry
33 77
al y
Ġad verse
10065724 409
260 19584
Ġgener ally
ĠSent imos
10065724409 26019584
in ally
Wh at
Ġsand als
erma ny
A v
17 76
Ġof ten
1527 85484
ĠMAR IO
Ġescuch amos
152785484 1
G a
M c
Ġbr ing
iz uki
B X
52 1
Ġba rely
an ks
Ġde p
Ġme t
cur ious
D V
y si
Ġst art
su q
B T
48 00
velo us
17079 858
H az
Z X
69 3
Ġqu arter
ut ions
c s
n Y
64 367
99 97
05 696
64 3
Ġe sta
Ġcol d
8 68
ch i
ĠC ar
x F
Ġa bility
Ġar my
f G
14 29
9 25
12 65
19 00
ĠVers us
Ġau thor
Ġbro ad
ĠB lack
Ġri en
Ġdam age
Dis cussing
Discussing Film
ER F
ĠMar ch
Clas sy
k ward
15 16
14 20
ad es
g ami
ĠM Y
ct ions
d os
12 97
Ġfo re
Ġcou ple
100657 99
J y
Ġj our
str ing
ĠA ugust
6940 183552
100657169 6940183552
05696 256
47 81
365 05696256
10065725 36505696256
69 45
9 24
Sty list
v X
Ġt u
Ġfair ly
O K
b A
30 268
B Y
ado res
q V
qu arters
ĠRe make
ĠAN IMAL
15288 199
c ip
ll o
100657 05
30 72
13 28
69 52
Ġfeel ing
ĠV ERY
vh d
av ing
6 17
9 65
! )
we ar
13 57
Ġp en
28 80
wh at
A bsolutely
d R
13 24
Ġin side
Ġst re
ĠO h
ase r
Ġliab ilities
g QW
ar m
Ġslee ve
8 83
Ġit self
400 640
gs D
792 128
Ġcal led
3496 30268
152882 25
mi th
26 337
698 2784
j im
bm w
P Bk
U jZ
V suq
100641080227 6982784
il t
Ġet c
9 47
ho use
UX iP
YR jq
jc Mt
avi er
hB od
Haz UjZ
gsD YRjq
PBk Bj
jcMt B
j i
10065724 64367
1006572464367 792128
100657 59
10 45
ir ing
Ġpull ing
ĠL BD
curious cat
K V
as te
24 70
Ġst ore
AL L
16 62
Ġe ffort
sh irt
64 64
ĠS NA
Ġle ather
Ġfemin ine
ĠIs land
Ġevery day
ma c
U x
Ġreg ard
K izuki
Ġde al
To gami
1740 86
5 47
100657 88
ĠSe cond
4 35
Ġcaref ul
Ġvot re
ĠS te
ĠCol or
V U
ĠS panx
T ho
26 05
Te am
ish ed
nd e
Ġco st
124 50
ent h
ĠP a
ile d
r S
C Y
s cal
1237 93
P ok
l un
Ġs ides
ĠS H
44 3
Ġso phisticated
52 28
O ne
10 35
Ġl ink
96 16
du cing
Ġest im
44 64
Ġcons olidated
3489 28
J C
Ġw rong
ĠH ave
cl M
524 86
ĠMet roid
Z h
34 55
Ġse ction
Ġ va
33 28
Ġ ?
Ġmin ute
2847 4781
l D
16 40
Ġcontin ue
el ve
row n
Ġsurpri sed
C A
Ġw ri
M M
u Uc
1479 24
f m
or brit
orbrit an
Ġs on
Ġbe lly
ĠC OM
ĠH ear
ustr ator
F R
r as
ĠS outh
95 4
Dfe clM
AAP uUc
8 10
z B
Ġth ird
Ġg ar
igh ters
Ġexclusi ve
2650 35
l R
585 265035
ust in
90 6
110 4
H S
k x
Ġat tend
1006572 147924
Ġmid section
new s
1006572147924 348928
m or
17 45
Ġno te
por tion
Ġsu bsc
5 67
d W
100657 250
84 8384
ĠP art
for ce
O r
cont in
g V
k v
2577 92
F e
an gers
77 60
66 1
ĠCor ps
S te
J Z
cre t
38 30
N G
Ġ ;
roug h
Ġw atch
100637 6840
Ġaccent u
26337 2800
1006376840 263372800
I e
Ġjo in
TO P
B en
H D
di st
AN T
Ġstar ted
ĠUni verse
ĠSNA KE
Ġdis p
Ġsim ilar
Ġear ly
80 39
Ġdou ble
i ed
te ur
K C
im ented
32 288
flo ating
36 257792
10063 848384
10063848384 36257792
ir m
Ġman agement
K r
L U
ĠY OU
Tr V
Morning SSB
RAyojmu TrV
Ġexpen se
Ġg ra
Ġspark le
c um
t q
Ġop ted
18 67
Ġbo ots
yo nd
9 45
Ġf uck
Ġl ic
Ġg uns
ill y
Ġhug s
14 87
F m
Hollow Knight
camp aign
A lerts
G ot
v L
26 20
77 56
Ġob lig
r W
re y
44 39
ĠF ighters
Ġcon ver
DfgO X
v N
ll s
Ġt alk
ol f
68 57
ĠT enn
Ġwh y
176 33
da e
w ith
ation al
9 18
Q a
ĠI con
76 3
Ġw al
6924 80
Ġreco gni
46 3
DfgS k
K T
i ly
44 2
4 20
\/ #
Ġto wn
Ġcompl iment
78 18
X V
p C
Ġnoti ced
Ġ athletic
ĠF R
6 25
ĠĠĠĠĠĠĠĠĠĠĠĠĠĠĠĠĠĠĠĠĠĠĠĠ ĠĠĠ
mer ly
Ġto tal
13 67
Ġprison ers
Ġwait ing
Ġfight ing
4 28
n E
ERF ECT
100657 494
ĠD R
D q
c ul
85 77
65 44
ĠD ragon
j X
U H
Ġli kes
EC K
t VM
im s
Ġd esc
ĠC H
Ġst rong
fc c
ffic ient
Ġsil ver
100657 08
64 32
86 1
1006575 30
lle n
ueg o
S U
30 51
988 18
8 89
P y
ĠFeb ruary
659 136
80 56
ĠK az
floating present
Ġb ene
Ġun e
Que en
v W
g G
37 72
Ġfi scal
Ġcompl imented
Ġsing le
b lo
t z
45 39
sk irt
D y
U up
v U
ge nt
Ch icago
cade VG
Bar cadeVG
ĠF C
ĠCh ar
ĠChrist mas
g X
ĠI ntro
13 61
Ġth ous
Ġread ing
ti ll
322 240
Tw eets
Ġto ward
75 840
Ġfor get
Ġne are
597 322240
100657826 4796
1006578055 597322240
80940 800
1006578264796 692480
str ic
Ġun less
120 98818
1006567 9315
10065679315 12098818
9 79
c ff
Ġso u
ĠR ed
Ġc ra
ĠThe se
Ġluch adores
Ġcult ure
1 145
C r
und s
W E
Ġa us
100657 14
17 70
33 12450
337 80940800
Ġdire ction
10065784 33780940800
nB rigadier
Ġcour se
3312450 384
152882 16
ro y
100 59
ar th
FF CC
Ġme r
Ġup date
roug ht
ive z
ys k
6840 32
D s
ap an
5 27
H a
U U
be ls
AJ DF
":[[[ -
J URG
28 65
ĠS onic
Ġra il
Ġaw kward
Ġorig inally
u Y
100657 66
30 81
ĠL ong
Ġpro cess
Ġbre ak
g oo
ue tte
L P
b H
ma le
18 57
G O
st ick
13 99
Ġla unch
ĠC ON
Ġchange s
1327 38
O e
n q
31 173
10065729 0
n Pz
p in
Ġso nt
E M
680 2176
90 3
BS O
59 29
99 67
1006570 32626
100657032626 6802176
or ge
17 77
ĠH irai
x q
45 602
1006578 659136
1006578659136 684032
15 10
90 40
K o
z s
ĠNY E
nPz VX
1528 67
21 13
394 3909
100657494 3943909
1006574943943909 377
e h
st anding
on a
75 8912
Ġsh all
6 69
10065 675
la V
ĠTe ch
Q D
Ġtr uly
5 36
co urs
Oy O
Re ally
57 346
ĠP ikachu
g jd
l Z
r ay
86 65
DfgSk laV
O q
89 3
I Y
E u
i if
on es
mun ity
10065795 45602
1006579545602 809856
B G
K ING
R uns
one nts
ĠL ots
Ġinterest ing
uM dq
tVM Y
uMdq gjd
u ble
Ġacqu is
85 2
35 2448
"}}} ,
Ġr uff
Ch aos
10065790 758912
pH s
10065790758912 57346
p ite
69 77
P a
Ġa ction
107 32288
ur ai
67 177
780 460
M F
t u
Dfg Y
7549 10732288
780460 754910732288
ir a
j I
s upport
no us
ine er
ĠMe dia
1006569 2500
Te iif
67177 472
10065692500 67177472
Teiif pHs
8 85
F pm
Ġin de
ĠI ll
contin ent
9 66
ĠJ in
Xc AE
2 31
150 4
Ġb rought
un i
82 1
199 1680
1459 5922
14595922 38
15 68
Ġoc cup
ĠHear ts
Ġst udent
Ġle ase
9 20
over n
5 25
l led
28 98
24 17
Ġproper ty
100657864 5077
12 73
ĠS tock
Ġreg ul
80 65
UYAA rx
ĠFor m
lle nt
dJ UYAArx
1006578645077 352448
Ġreg iments
u B
st it
45 2
ĠB R
ber t
10065697 49
qo PN
gT VMAA
DfgOX gTVMAA
q t
00 2
Ġmo ment
Ġdo ing
q Y
AA K
HHHH HHHH
C R
N ormal
ut ive
Ġdis pon
k L
q Q
se l
ĠA ny
776 1991680
QU Uw
Ġcompet itive
100657530 7761991680
BSO QUUw
Fpm BSOQUUw
N U
12 64
pe ctive
11 20
ĠF un
ac ed
Ġdisappo inted
v V
Ġinclud ed
Ġstay ed
kn own
ĠIntro ducing
G W
DfgV L
652 330
D x
n r
25 61
Ġco at
ĠG R
Ġk illed
Ġac cord
ĠMyth ra
Q J
Ġc la
XM achina
Ġvers atile
j R
y a
16 97
26 19
039 38
Bo ots
. ]
or m
55 87
ĠA ssistant
10065726 652330
4534 75840
1006569749 453475840
10065726652330 31173
B I
st y
65 83
Ġco nne
Ġv iew
!!!! !!!!
ĠAct u
67 45
ag rim
L W
ht ml
20 14
Ġau f
Ġturn ed
5 37
Df eb
59 27
ms lun
mslun agrim
Normal Boots
cou te
Ġgi ves
Ġstick y
Ġsor ties
C am
P Y
Z b
c w
85 50
Ġimpa ct
68 80
AA s
Ġdevelop ment
k A
u er
IG HT
Bienven ue
Ġre cord
Ġm ine
Ġmo ving
633 7
4 16
ik a
ĠAr tist
Ġsp ace
550 40
Ġcontra ct
T ER
h am
Ġin du
64 49
ĠN ous
Ġv on
vY Q
Ġneare st
20 13
Ġw he
39 04
ĠVolunte ers
8 60
d L
pK jd
z g
ĠCh arac
t g
w ood
100657 94
Ġown ed
W AAE
ho uette
2117 03938
I p
Ġs qu
Ġin s
irm ish
2 160
a les
Ġrest ons
9 30
l Y
ĠE nd
DQ RS
K Y
22 80
1006570 24
C k
V o
0000 0
152882 12
10065780 9540
5531 141
100657809540 5531141
22 83
":" \"
Ġp ush
Ġhe avier
Fh Q
Daemon XMachina
x jk
100657 45
sh i
ra z
1459 06
at i
DfgQ e
ob el
c Vw
n Q
ri ous
Ġcre dit
d en
m ic
Ġwork ing
65 1
ci ated
Ġpro vide
Ġcon cours
Ġdut y
9 64
G C
S W
du ard
9 16
R am
an o
56 3
Ġlike ly
Ġtro uble
Ġslim ming
H b
18 69
27 26
aN kJ
aNkJ Sn
d w
34 34
ĠM iss
064 7
5 14
2929 75
19 67
Ġsay ing
h en
o c
00 60
Ġb lazer
an jim
83 10
Ġt ags
DfgV T
Ġ18 61
nF cVw
ĠUni versity
jS nFcVw
Ġimport ant
lP jSnFcVw
15 97
82 3
Z B
anjim ver
67 14
s uper
Ġd rink
Ġcomb att
e es
ĠS w
89 1
Ġhead quarters
C D
G eek
ge l
Ġzip ped
br idge
ustr alia
i ally
me t
Ġt ur
Ġcol le
10065777 9887
Ġtechno logy
A ll
V s
] ","
Ġac tiv
5 20
b ros
q z
19 49
The Chaos
My WkAI
xC TO
2469 506
DfgVL MyWkAI
100657779887 2469506
TheChaos Blue
DfgVLMyWkAI xCTO
L EY
W b
ĠW ho
VQ AE
nO ur
292975 1247
64 480
Ġcol lect
Ġcomp ensation
18 50
100657 275
ent y
uck y
a ay
se y
Ġh ide
ĠL ive
ĠSu ivez
Ġle ar
int ain
Ġsil houette
16 95
69 2
Ġra ter
Te ch
152882 26
IT CH
49 64
1525 2507
Ġoption s
15252507 50
Ġb ul
100657 41
Dfg K
he ad
Ġm atter
Ġwo man
Ġde li
Ġcommun i
F ran
Q w
ay s
1006568 7
N obel
34 208
Ġincredi ble
Ġdispon ible
5 84
R etro
d g
25 19
Ġfee t
Ġfee ls
15 12
83 56
ĠC he
Ġle ave
Ġwed ges
si ble
300 9
Ġreport s
Ġmulti ple
Nobel pri
Ġcom ba
s nappy
400 628
Ġdisp atch
fi c
65 28
eS nappyTV
snappy tv
C w
V F
39 65
157 49
100656 68
7 66
ch a
Ġbre ast
Ġdepend ing
400628 619
! \/
10 26
14 50
87 1
Ġy o
P w
Ġw riter
ĠP urch
TOP AT
O Y
ĠA bout
Ġ rate
Ġm ilitary
po lis
d r
Ġcompl ain
E r
g L
13 2800
99 60
Ġjust ice
ĠWh ile
A b
B er
ĠV II
ĠiP ad
5 33
E cho
Ġter ms
M P
R HK
que nt
ke y
23 87
Ġsmoo th
Ġro ck
Ġpar ties
044 1
T z
W al
26 34
36 1476
Ġas s
ĠDis ney
361476 003
S er
Ġfor ces
ree k
M G
W ill
Ġhe ar
s witch
67 324
ĠM s
re al
100 54
10 92
ip ad
\/# !\/
A lex
Ġ 90
st R
88 2
Ġre f
Ġse cure
14 48
ra i
Ġwal ked
K S
Ġe in
to ur
36 10
B r
Ġb ucks
13 12
Ġpre pared
Ġstand ard
49 75
i b
igh ted
q I
1006567 9
Ġprefer red
g reat
17 99
49 2
35 04
Ġconfir med
Ġlleg ar
T j
ĠPe ach
B y
C e
or ia
th is
ci as
co s
116 8
ĠGame Cube
And rew
I b
k F
OU S
LD i
Ġ null
Ġenjoy ed
s in
100657 82
ic ip
32 834
57 3
59 1
ok ing
T om
o Pr
play er
Ġnear ly
y R
te enth
graph y
Ġattack s
Ġrail road
79 52
ĠL ou
OC TOPAT
m Ep
Ġbe yond
35 84
Ġc ity
Ġun able
Vb x
Ġprin cess
Ġ medi
19 36
90 70
Ġsi te
DJ uegos
Y Al
t N
Ġ Qu
Ġac ce
rd er
QV stR
ious ly
RJ tI
Fh RHK
Ts QVstR
oPr t
mEp W
RJtI Q
FhRHK A
TsQVstR LDi
100 40
Ġsol utions
Ġconcer ned
Meri Station
w k
od os
5 29
7 27
Ġcom men
Ġta king
nT otal
P q
in ger
H x
Ġretur ns
l X
13 18
Ġm us
85 1
04 10920
Ġch ar
345 282
818824 0410920
Iv LC
iG IvLC
8188240410920 55040
2 192
m cr
Ġ ir
ro ck
Ġrecei ve
1805 83
9 15
o g
318 180583
ii bo
ĠCa rol
ysk land
l m
17 60
13 80
ĠC alifornia
9 39
00 59
89 60
57 3830
10063709 573830
10063709573830 32834
42 24
Ġfall ing
zi F
ĠH EADQUARTERS
EB EB
Ġneg ative
18 336
16 32
950 3076
Ġeffe ctive
ester day
HTR AVE
Ġsubsc ription
15749 345282
OCTOPAT HTRAVE
mcr ziF
9503076 15749345282
5 39
S c
k rz
Ġopin ion
Ġbut ton
OCTOPATHTRAVE LER
8 64
14 47
ĠA pologies
Ġt rend
Ġse rious
Ġex ec
Ġdeter min
N E
si l
Ġd rop
ĠS UPER
Ġst uck
14 57
Ġr ide
100 37
12 7865
83 20
Ġe at
955 1
Ġreport ing
4 55
6 32
o U
Ġt rop
Ġbrid ge
195 1661
1951661 306
W T
25 65
1006578 250
Ġfur ther
Ġwri te
tr ack
59 68
240 85
4 32
N R
Ġg ap
Ġup per
Ġs ort
ex ico
Ġmost ly
9 19
X T
c x
y Y
13 68
ak urai
G re
pl iments
ri g
33 60
oo se
An imal
Ġprev ent
67324 160
N K
00 79
ĠB y
10065725 287
10065725287 67324160
H er
S ome
X r
14 49
ĠW riter
MA Z
ĠCh ief
Ġra p
H d
m os
11 15
ri ke
30 64
15 84
Ġhap pen
Ġgu ard
F S
ĠT exas
0 40
100657 16
37 3
50 2
6 65
P M
17 29
ĠTh ank
E ire
I a
T Kb
LOVE D
Ġbreat h
r p
ĠS till
ĠN ovember
62 29
Ġbo ther
557 132800
Ma x
1006578250 557132800
4 89
96 2
a ur
Ġre ference
Ġrece ption
I E
ve c
13 90
Ġback less
1006567 418
Ġsi x
152867 9551
n Com
u h
Ġs pot
B IS
800 439
1006567418 800439
1006567418800439 297
s we
Ġ !\
DfgV m
14 97
UEAA I
N g
c GP
q s
68 18
Ġroom y
4 10
v t
w are
nt a
14 84
ĠP er
e W
165 45
n pK
ch or
2019 00
j usted
n al
u Em
Ġde m
09 45
ĠCan ada
5 99
Ġch al
788 2
ĠG overn
vi ant
VW k
Y z
Ġh ands
79 1616
95 8
56 2
nth usiast
AN f
n K
my L
Ġqu i
F x
p L
Ġcon stant
Ġgrad uation
ĠMari a
Ġs uit
89 47
R U
00 70
59 57
ke t
row d
br WS
4235 5887
950 42355887
Ġtri ck
8048 258
95042355887 8048258
I x
10 99
Ġo u
Ġc ine
ven gers
uck ily
29 12
86 39
W wS
and om
Sh bA
HH cC
Kb uEm
ZF KbuEm
Ru WwS
TKb F
cGP ge
myL RuWwS
HHcC cGPge
ZFKbuEm HHcCcGPge
myLRuWwS fo
B Q
T X
q q
Ġa verage
Ġba lance
ĠDep artment
4 13
30 69
Ġbene fit
Ġupdate s
l ive
ble ms
Ġl ined
L y
se arch
Ġs chool
28 49
77 3
Ġsk irmish
Ġdis co
197 57
1057 92
G s
j B
Ġma intain
78 22
152882 27
Ġa ffect
Ġte leg
Ġfla re
C b
t LV
34 3
Ġpa ck
I A
P Z
q of
19 859
Ġdress y
57 55
Ġam ong
IS S
UW D
9 35
w W
Ġs ource
1006569 758
46 1
o e
92 16
ĠUn fortunately
H E
the y
Ġfor mer
1006573 28
m x
n m
TY x
14 05
13 72
AA V
Ġco s
D O
100 26
Ġincl ude
lim it
9 37
M v
ĠO FF
ro nt
Ġe mb
1006570 20
ĠCarol ina
id ing
Ġday time
899 105792
Ġallow ed
1006569758 899105792
r UYAA
ll ar
ĠN INTENDO
B lo
B DD
Z g
16 49
DfgO TYx
UcAA zn
294 6920
100657024 2946920
DfgOTYx UcAAzn
1006570242946920 448
DfgOTYxUcAAzn jf
27 952
50 505
IS T
Ġw rap
18 78
14 336
F V
f h
an ic
31 20
ĠH er
E G
J K
Ġh one
89 30
fe ren
Octo boy
E duard
s A
33 70
33 92
Ġc ir
un ter
6 60
30 52
Ġbe ach
55 40
66 24
08 8777
100637 088777
Ġpas s
8557 953
100637088777 8557953
i res
Ġre bel
Ġn atur
ĠP ERFECT
game stop
ru le
7 18
g re
k Z
Ġ 45
100657 119
Ġpro blems
ich a
Ġwee ks
M g
Ġ count
35 119
22 27
mo nd
Ġb ought
17 90
Ġre cent
pr ising
mq t
v in
j U
C AY
Ġp rac
Ġse a
ĠG e
ain s
1006573 6952
19859 456
10065736952 19859456
11 33
J b
18 00
ĠN OT
mon y
5 19
Ġre lat
23 10
Ġant icip
Ġ =
ter ally
12 49
4 19
n Re
Ġlo st
ws f
MAZ ING
I c
p p
z K
ĠIn c
2470 401
ĠMs DBZbabe
4 57
10 88
16 00
clo ck
Ġprovid ed
Ġp ublic
684 16
10065730 7756
100657307756 2470401
vent ure
7 84
14 58
Can ada
Ġf und
RT R
Ġsee ms
ĠWh at
N i
Ġg un
ĠE nthusiast
Ġfa ce
A a
V AAE
W a
l Me
Ġy e
ĠE l
G e
X e
s mash
Ġas ked
Ġca st
S a
if f
ĠG ood
Ġpie ces
0432 385
3014 0432385
10065742 30140432385
S I
10065779 88
390 85
06 33
iz za
DB B
ĠDR ESS
7 85
G K
I ll
ĠS platoon
ther n
.. .\
Ġple ased
7 45
N Z
h ip
ma rio
Ġf ul
28 490
ĠC EO
Ġba g
GameStop E
110 40
Ġneed s
2898 27328
K y
th es
65 29
374 1696
ju anjimver
877 267
M R
100657 952
A k
ĠS pring
425 792
rz CAY
ZL P
27952 3741696
877267 279523741696
rzCAY ZLP
E v
Q s
Ġb ump
29 45
Ġad orable
R ise
tr ini
ite a
Ġm at
1006575 850
197 16
Mero Station
v ate
th at
Ġs ys
59 81
DA Y
St ar
ĠIn fantry
DT B
Ġsat is
on na
Ġe le
Ġact ual
trini itea
t ne
w x
z es
en ter
12 87
tr a
ĠM is
Ġde als
ĠSt ar
nC ons
ht As
OL XZ
kl htAs
OLXZ klhtAs
Ġim possi
G B
I U
18 19
mb re
Ġfun ction
XUAA Ll
HM XUAALl
213 76
100657826 1227
Ġsecur ity
DfgVm HMXUAALl
1006578261227 425792
DfgVmHMXUAALl IZ
88 33
9 86
FF F
Ġca re
.... ....
Ġexpect ing
n General
39 68
ĠJ e
Ġy esterday
Ġla ws
215 791616
Ġwhe ther
1006577988 215791616
tne K
f mg
j J
s ho
14 80
ven ue
1047 19757
kU rUYAA
1006411 104719757
100657275 289827328
1006411104719757 312
100657275289827328 7
o M
v r
7 69
ĠP lan
42 3
Ġsup pli
Ġflow s
Ġlay er
4755 11808
1006575850 475511808
D G
100657 98
10 18
832 33
Ġcharac ters
Ġme ans
08 140
gg ie
1006576 2518
28490 240
10065762518 28490240
S uch
ĠW ashington
Ġfa ns
14 54
Ġp ers
1006568 65
ub b
228 608
aj es
ĠAl though
Ġ vacation
st ar
21 30
Ġv ous
Ġob tain
Ġprin cip
b D
Ġ %
100657 67
Ġto dos
47 84
Ġan k
Ġop p
Ġgi ving
C at
b I
100 55
ses sed
Ġemploy ees
K n
ĠP SN
Oi Q
K z
ĠF L
U td
Ġp and
Ġin struct
34 37
Ġbr unch
F elt
U GV
l wl
q Jm
Ġre tour
IV qJm
Ġscrat chy
lwl IVqJm
lwlIVqJm Ai
9 59
c ra
k er
Ġin iti
ĠM on
pa re
U Z
ĠC las
bi X
10065719 08140
Ġcapt ured
1006571908140 228608
f P
z W
Ġstr angers
Ġprodu ct
R h
di ct
ĠC ons
ext ra
Ġpur pose
gd P
0 29
7 36
J j
ba ss
ren ch
9 14
N INTEND
30 83
H L
Ġm on
n x
83 77
Ġm atch
ab ric
100658 00
Vw A
NS l
Q x
Z l
100657 65
Q NSl
k k
364 4449
10065749 3644449
DJuegos MX
Utd QNSl
100657493644449 3825
UtdQNSl VwA
7 49
A g
U h
Ġ fill
3 164
pic al
90 8
92 320
Ġqu ick
Sh adow
Ġbu ilt
Ġle tter
Ġissu ed
7 37
B V
q C
r v
DfgW vhd
Ġdetail ing
XkAE YX
24085 17633
100657952 2408517633
DfgWvhd XkAEYX
DfgWvhdXkAEYX nU
F ull
64 33
85 3
Ġunder st
10 55
10 75
865 4464
A V
Ġme ant
ak a
1008 64
Ġstand ing
eng th
4 27
T C
Ġs un
85 120
Ġche ck
. -
Ġres pective
ju N
5 11
I nd
I it
i lo
Ġf r
Az DC
Ġlink s
vYQ AzDC
64 16
Ġorgan iz
re mony
15 48
Ġre ti
Ġp ul
ĠS ch
ĠS ince
nC ol
Li P
DTB juN
OiQ LiP
Iit OiQLiP
f V
Ġbe come
ĠR uns
Ġge ek
Ġimpossi ble
C mqt
Y V
d z
x M
Ġthe med
67 21
99 20
Ġsh own
Qk Cmqt
QkCmqt HB
Ġcom ics
1006570 313
Ġrap id
viant art
me mber
ber to
blog s
AI X
ĠLink s
Z O
n X
12 54
Ġh ang
04 1
10065690 48
S exy
use d
28 16
B q
ĠB ay
Ġloose r
ĠFor merly
Ġmode st
333 184
Ġok ay
N t
ut ch
ad d
ĠH Y
1006575 77
T odos
l x
ll i
688 100864
1006570313 688100864
Ġa b
67 84
89 99
32 33
43 68
Ġaw are
8665 45664
1006569048 866545664
100 16
100 50
he l
Ġp ic
Ġfa il
574 35
Ġbon ing
1519 56
16 66
ĠM r
ĠB ra
Ġty pes
7 65
e z
13 29
Ġdest ination
L k
R D
Y yo
ion is
64 84
ĠS mith
44 75
Ġdire cted
10065741 151956
10065741151956 21376
152882 14
p q
259 20
K x
Ġst a
T ON
68 1024
71 19716
289 8537
Ġappro ach
JT L
ĠEVERY ONE
7119716 2898537
71197162898537 6768
de viantart
Ġexp o
n intendeal
ma id
VWk AE
g K
id ad
10 67
28 4112
al t
Ġho use
Col onel
Rp Y
100657020 57435
284112 5981
10065702057435 83233
at us
age r
13 66
n h
ĠA gree
Ġbr ide
gS T
stop per
Ġcuto uts
r b
ĠM er
AI N
AR JTL
434 333184
ĠMa los
ey ARJTL
1006572689 434333184
95 849
Ġsome what
10065779 0
c in
Yyo j
Ġbe h
Ġfa lt
Ġsup posed
A ustin
b x
d ra
Ġfor t
34 09
11 19
Ġfull y
9 26
49 3440
ny T
279 36
Ġtri p
E X
18 97
83 69
Clas sic
u U
85 70
Ġsub stant
6 29
10 97
DfeY gST
VQAA Lj
DfeYgST VQAALj
DfeYgSTVQAALj JN
f X
Ġ file
Ġf re
ros sed
Ġgo es
A y
Ġo dd
Ġaf filiate
887 8654464
100657787 8878654464
0 274
id g
Ġhor ses
blogs pot
V y
j t
Ġd ream
Ġs plat
ĠA RM
H I
R g
is ter
19 64
83 777
1006569 84
628 74
8 27
Ġmin utes
F DBB
Ġsh it
N C
ev ee
ĠSt reamer
Zp K
J W
95 85
ĠG AME
Ġpl aced
10065723 8397
5587 840
Ġopp onents
100657238397 5587840
Co mp
ĠPl us
994 33
8 25
A UwAET
W Nj
h C
i ge
s w
10 796
DfgQ Ny
ĠY our
Ġdel ay
100657860 35119
WNj ZpK
DfgQNy AUwAET
10065786035119 92320
H QY
fit ting
33 76
Ġre du
62 00
g fT
16 85
89 2
Ġan im
ab z
Ġcover age
Ġintern al
1361 10
19 84
Ġp umps
34 18
ab ility
Mr S
10065776 681024
10065776681024 14336
_ -
n ers
DfgR D
stric ted
6 83
Y p
37 28
ĠH ill
Super MarioParty
Ht Us
HtUs I
J B
Q j
Ġse am
.. .",
f lattering
20 96
un ted
38 89
Ġlight weight
Ġcap ital
w d
10065 62874
Ġf las
19 04
Ġre fill
Ġany way
DfgH md
Ram O
0079 16545
VWkAE RamO
1006562874 007916545
DfgHmd VWkAERamO
i y
Ġa vec
en ix
und o
Ġbrid es
Xc AI
ĠLi ke
Ġmeas ure
U G
59 227
ĠRe ally
i ler
ĠN umbers
7 59
Ġca ll
n V
Ġ user
ĠC ur
F lattering
F uw
y al
St orbritan
Ġunder gar
328 96
390 68416
K Z
c H
i ke
ree house
10065695 640
Ġg ue
ĠC reek
Ġde fin
Ġ18 65
M adrid
i vers
Ġ intend
ĠJ ames
UwAA g
Ġce le
ĠBus iness
1006568 955
98 19
ĠBe cause
i A
p W
18 59
100657 624
our i
77 2
U D
Ġ 33
Ġ 50
27 52
ĠW ish
81 12
ĠP od
Ġce remony
14 85
oo oo
ID LEY
swe ater
8 69
C J
Ġa lerts
is m
de w
ĠC af
1006578 16
285 64
AC Y
jv z
6 12
no on
60 26
93 2864
Ġar range
DfgT HO
10065755 316
604 16
3987 1219
95849 472
10065755316 95849472
39871219 92
B L
is ted
Ġre p
118 77
DfgT m
Ġste p
Fuw jvz
N orth
b h
co no
DfgN q
Cam bridge
100657 93
57 504
ĠH ad
Ġco o
147 136
260 85120
Ġexce llent
100655 99433
Ġsplat s
10065599433 26085120
C N
ĠF o
Ġinstruct ions
Ġexpo sed
6 67
E k
Ġfi ve
ĠN YC
Ġthous ands
7 00
O s
ic ate
90 69
IT D
Ġexist ing
5 80
30 70
Ġre bels
ai ler
Ġcle ar
O j
Ġ ill
lo ud
34 57
Ġpo tent
K e
S D
V Kw
1006577 377
1006577 378
10065779 507
1047 6801
ĠReg iment
Ġpul led
nCol onel
10065779507 10476801
Ġim ag
Ġpick ed
R a
s ure
12 48
ĠAr t
AP t
NINTEND OE
i os
24 386
ĠS ho
ĠG r
Re ceived
im ple
15 00
1006574 34
933 147136
6745 11877
1006568955 933147136
1006577378 674511877
4 17
Ġd en
100657 92
g ot
n As
100657 115
14 56
zr APt
Kd FC
VKw KdFC
6 39
10 50
Ġa ns
24 16
34 00
il i
Ġperson al
a o
ĠN or
DX t
6 11
n Tweets
ĠĠĠĠĠĠĠĠ ĠĠĠ
26 63
ĠJ ack
A Q
A u
ĠB ar
tLV e
DXt Pi
80 16
27 69
ĠS co
22 65
1006580 3965
Octoboy YT
g ra
Ġ item
100657 09
13 69
ĠW H
1079 73
w ill
ĠP R
1006569 39
1006577 66
Ġsee m
chor us
59227 9040
1006577377 592279040
L aser
62 273
Ġthere fore
DfgT V
Ġdesign ed
31 65
ĠIt s
Ġris k
1 134
Ġa vo
16 44
ĠTh ird
Ġrecommend ed
Ġsub tle
Ġbuy ing
Ġentire ly
m P
n fd
Ġs um
rev er
ĠP AR
1006570 3337
3265 1008
10065703337 32651008
E urope
n ow
ĠJ ohn
Ġat temp
FA ND
FAND OM
H p
I ns
13 19
11 10
859 136
1006572689 6857
24386 6714
10065726896857 45664
5 35
Ġs cou
13 84
89 07
G jM
r ing
30 35
Ġcom o
ĠW orld
1004 107973
28564 6337
10065803965 39068416
nfd GjM
1004107973 285646337
E legant
ed eral
14 65
ĠG O
ĠG et
Ġwa ter
Uc AE
B i
E b
M J
c j
n ins
624 80
ĠTe am
Ġdisappo int
Ġgu ess
Ġsecur ities
Ġstruct ure
ĠW ork
witch news
1006577 850
Ġje ux
ĠX enoblade
nins witchnews
G bT
ĠB rigade
Le vel
hold ers
7 99
13 55
1006574 247
609 60
Just in
b bo
in da
Ġas so
78 69
0 26
8 8583
A e
L wC
S R
X y
ai j
Ġgl am
IO VQAA
10065760 62480
DfgTm IOVQAA
1006576062480 859136
7 64
F s
27 10
ĠB ro
ĠP hoto
L d
W as
z ard
or ionis
pe cted
150 725
In GbT
aa aa
269 87
raph ic
ĠDon k
9070 62273
1006577850 907062273
co at
40 3230
5 18
A H
S ant
ĠS upport
Ġe mp
75 18
74 29
Ġr u
Ġgr and
3455 57504
1006574247 345557504
f p
o z
Ġre le
ĠTh anks
Ġpur su
F Hu
V V
or ing
ĠI D
Ġri ch
540 3
icha el
10065695640 403230
7 83
T L
29 44
ĠK night
Z R
v s
30 48
152882 15
Ġstretch ed
10065695640403230 78
st o
Ġp oo
Ġpri or
Ġopin ions
Ġadverse ly
w t
Ġ mal
12 77
MA N
cor por
J ACY
m W
jp cb
res ident
85 45
ĠG u
ny GG
ĠSmash es
vo X
770 88
ZH FHu
em ZHFHu
ĠSW ITCH
sA TR
wsf nyGG
jpcb voX
emZHFHu G
5 802
G z
st in
18 25
ĠA LL
Sh ow
Ġreg ret
lish ed
o R
49 92
ĠR T
000 6
ĠV al
Ġoblig ations
y C
100656 69
Ġdiffe rence
9 48
X d
Z th
w Y
Ġ content
Ġa wards
33 56
14 72
ĠS ta
man te
nO n
150725 7822
35 69
99 3
1006569 8
ĠO ffi
Ġspe c
P C
e fb
Ġstop per
ĠHY PE
S outh
d an
Ġp hone
ĠS pe
Y ll
s f
13 17
1006573 162
Ġim pro
ĠARM Y
W R
14 7818
19 69
Ġre place
22 24
reat or
.. .","
6 64
b W
18 89
Ġt aste
113 44
35 16
ĠH ERE
ĠV e
u ted
20 628
P ART
37 33
152 12
Ġgo ver
Ġcommuni cation
T k
29 05
ĠF elt
Of Ty
26 77
Ġke y
Ġvid a
ie ve
37 175
87 18
Ġbo xy
Ġkn own
294 39
F Y
ĠD EAD
Ġun fortunately
Ġvari ous
Ġrecogni zed
L rF
N f
q j
t ie
Ġc ry
An ime
Ġter m
39 99
ĠS tr
ng a
40 3
36 00
1006577 99
Yll zX
E VERY
G U
Ġp ower
26 88
Ġafter noon
Ġincre ased
N V
Ġj ud
Ġba sis
147818 9997
ge ner
33 69
10065729 7
998 20
Ġcra zy
Rise OfTy
Ġtw ice
ris on
Ġstruct ured
Ġconstant ly
C fk
c ut
um n
83 68
49 60
ĠM E
ĠD ay
Tr ue
FO Zth
Ġreach ed
1375 85
aij FOZth
u V
y I
100657 64
83 76
Ġsou th
7 13
70 3
ĠP L
om rd
ĠBo th
bass ador
ĠM or
DfgO a
VQ AI
G l
H z
V A
Ġ text
an ia
Ġch urch
328 59
ĠTra iner
c age
j V
vid a
j C
k X
iss ance
i F
str ide
14 77
al d
Ġfeat ures
Ġappear s
1 1528
le igh
Ġma is
Ġprim arily
Ġnatur al
c I
c le
ie t
1315 33
ĠAgree ment
8 30
F E
ue Jh
Ġso cial
Ġlo ves
Re make
mar velous
702 25920
Ġthigh s
Ġcomba te
88583 11344
ueJh GR
8858311344 70225920
4 33
8 67
v k
83 60
385 74
12 89
34 1
1273 27
S qu
1527 645
Q E
r C
Ġw in
Ġsurpri se
9967 7952
4975 232
o L
Ġn i
Ġacquis ition
100657434 32859
10065743432859 27936
I car
100657 15
14 89
10065697 8039
Al berto
PART MENT
100656978039 4975232
p ix
1006569 45
43 85
ES T
ĠPurch asing
1006569 1145
Ġmo der
Ġcon stru
av h
133 2
Andrew Alerts
1527645 181
10065691145 99677952
i am
12 32
27 68
Ġeng aged
ĠMiss ouri
* \
b en
Ġequ ip
mh Xb
JZ mhXb
m m
__ __
499 842
Ġwrink le
Ġprog ram
0 50505
14 73
ly HD
DfgQ k
1006570 372
Ġv ol
ugh ter
ĠDes igner
esse e
Icar lyHD
IcarlyHD Remake
Z Uw
n It
or tiz
an gi
13 92
10065797 38574
ĠCharac ters
26987 1104
1006579738574 499842
p w
y no
Wh en
Di AW
ZUw Ux
. \"
14 45
58 1
1006578 1818
nintendo E
In kling
udde c
838 13888
Hy rule
Ġgrow th
10065781818 83813888
Ġ range
pl ic
18 08
83 47
83 616
Dfg TR
09 89
Ġrun ning
2 11
i UEAA
20 32
ĠG re
Ġex change
114 858
1006570372 269871104
iUEAA n
114858 1069
6 26
E zi
Y ear
c ated
stat u
007 222
mit ted
3009 007222
O w
W y
Ġa v
the m
ri ble
77 1
1006569 67
gi ven
10065779 3712
1006573 85
Ġfan atic
PN G
fx OL
932864 1
Cfk avh
100657793712 9328641
Cfkavh fxOL
ĠS mall
vent h
qK I
n el
18 24
ĠP S
E ng
b Xq
100 60
10 59
Ġmo m
Ġch oose
Ġwere n
Z i
and a
95 68
angi ble
j s
q ex
100657 1165
ill a
Ġch annel
407 0070
jM bXq
Ġchar ity
4070070 508
jMbXq M
Ġin fo
Ġc rossed
ĠL ength
ĠY outuber
adi e
100 49
14 55
Ġm ix
ans as
Gf h
5 32
65 75
6 36
G Y
25 76
9999 9999
1479 05
Ġfind ing
ĠAm bassador
M C
ge nder
13 13
1006573 186
1315 11528
DfeY qex
ĠDi vision
AAO abz
DfeYqex U
5 69
g ment
213 55
ĠDE PARTMENT
Ġindu stry
100 33
10 30
90 32
54 295
ac he
6 34
N h
w ys
Ġoc cur
AAAAAAAA AAAAAAAA
K ab
L c
a red
ch an
66 337
Ġse rie
1488 1
Ġfore ign
6 15
9 44
25 44
utsch land
oM ir
1006571165 54295
100657116554295 2960
O rder
d Z
g ital
m V
st ances
65 12
en a
30 77
Ġparticular ly
1867 11040
100657297 99820
1006573186 186711040
10065729799820 32896
