{
  "!": 4,
  "!!": 1013,
  "!!!": 2504,
  "!!!!": 2330,
  "!!!!!!!!": 7684,
  "!!!\",": 5531,
  "!!\",": 3260,
  "!\",": 816,
  "!\",\"": 1824,
  "!)": 7001,
  "!\\": 2246,
  "!\\/": 7956,
  "\"": 5,
  "\",": 295,
  "\",\"": 265,
  "\":": 260,
  "\":\"": 263,
  "\":\"\",\"": 965,
  "\":\"#": 1873,
  "\":\"@": 6126,
  "\":\"\\": 629,
  "\":\"\\\"": 7772,
  "\":\"_": 6516,
  "\":[": 316,
  "\":[[": 6514,
  "\":[[[": 6574,
  "\":[[[-": 7436,
  "\":[],\"": 488,
  "\":[]},\"": 851,
  "\":[]}},\"": 3239,
  "\":[{\"": 467,
  "\":{\"": 325,
  "\":{}": 6591,
  "\":{}},\"": 6593,
  "\"}": 335,
  "\"},": 1549,
  "\"},\"": 434,
  "\"},{\"": 998,
  "\"}]},\"": 894,
  "\"}}": 806,
  "\"}},\"": 1032,
  "\"}}}": 812,
  "\"}}},": 7539,
  "\"}}},{\"": 2062,
  "\"}}}]},\"": 876,
  "\"}}}]}},\"": 1974,
  "#": 6,
  "$": 7,
  "$\\": 6365,
  "%": 8,
  "&": 9,
  "'": 10,
  "''": 6766,
  "'d": 2856,
  "'ll": 1922,
  "'m": 1113,
  "'re": 2290,
  "'s": 887,
  "'t": 846,
  "'ve": 2346,
  "(": 11,
  "(\\": 4929,
  ")": 12,
  ")\",": 3388,
  ")\",\"": 2931,
  "),": 2615,
  ").": 1720,
  ")\\": 2134,
  "*": 13,
  "*\\": 9814,
  "+": 14,
  "+\",": 4007,
  ",": 15,
  ",\"": 261,
  ",-": 3112,
  ",\\": 1944,
  ",{\"": 587,
  "-": 16,
  "--": 2560,
  "-.": 3074,
  "-\\": 4937,
  "-_": 3660,
  ".": 17,
  ".\",": 874,
  ".\",\"": 1103,
  ".,": 3648,
  ".-": 8883,
  "..": 938,
  "...": 1506,
  "...\",": 9164,
  "...\",\"": 9631,
  "....": 2775,
  "........": 8700,
  "...\\": 8613,
  ".\\": 1006,
  ".\\\"": 9849,
  ".\\\"\\": 5756,
  ".]": 7671,
  "/": 18,
  "//": 6070,
  "0": 19,
  "00": 269,
  "000": 948,
  "0000": 383,
  "00000": 7766,
  "000000": 606,
  "00016": 2481,
  "0006": 9588,
  "001": 3580,
  "002": 7618,
  "003": 407,
  "0032": 6016,
  "00327": 4919,
  "004": 3579,
  "005": 4798,
  "0059": 8151,
  "006": 2859,
  "0060": 7823,
  "00634": 3894,
  "007": 2474,
  "0070": 8349,
  "007222": 9882,
  "0079": 8236,
  "007916545": 9179,
  "008": 1785,
  "0084": 2080,
  "009": 1231,
  "0099": 4687,
  "009999": 3410,
  "01": 1436,
  "02": 1318,
  "022": 4629,
  "022330": 4733,
  "026": 9484,
  "0274": 9081,
  "029": 8813,
  "03": 1335,
  "039": 1663,
  "03938": 7669,
  "04": 832,
  "040": 8258,
  "041": 8935,
  "0410920": 8127,
  "043": 2450,
  "0430": 5247,
  "0432": 4555,
  "0432385": 8598,
  "0435": 6557,
  "043667": 6308,
  "0438": 6337,
  "044": 2452,
  "0441": 7993,
  "0442": 6150,
  "0464": 3770,
  "0487": 6776,
  "05": 859,
  "050505": 9824,
  "056": 5041,
  "05696": 6925,
  "05696256": 6969,
  "06": 1056,
  "062": 3409,
  "0627": 3073,
  "0628": 6206,
  "0631": 5513,
  "0633": 8604,
  "0639": 5976,
  "064": 1531,
  "0644": 3902,
  "0645": 5119,
  "0646": 6182,
  "0647": 7816,
  "0648": 5337,
  "07": 1051,
  "072": 6220,
  "08": 1035,
  "08140": 8738,
  "088777": 8500,
  "09": 1120,
  "0945": 8323,
  "0989": 9866,
  "1": 20,
  "10": 398,
  "100": 333,
  "1000": 2507,
  "1001533": 3833,
  "1001533846163": 3839,
  "1001533846163107841": 3840,
  "10016": 8965,
  "10026": 8443,
  "10033": 9962,
  "10037": 8193,
  "100397": 1804,
  "1003971998719053825": 1809,
  "1004": 3248,
  "10040": 8108,
  "1004107973": 9442,
  "1004107973285646337": 9446,
  "10049": 9934,
  "1005": 2772,
  "10050": 8966,
  "10054": 8011,
  "10055": 8769,
  "10059": 7420,
  "1006": 2966,
  "10060": 9910,
  "10063": 3025,
  "100633": 6542,
  "1006369817": 5226,
  "1006369817299902465": 5227,
  "100637": 1106,
  "1006370": 2025,
  "10063702858": 4725,
  "1006370285812006912": 4726,
  "100637035624": 6131,
  "1006370356242739200": 6132,
  "100637039": 4268,
  "1006370396927508480": 4270,
  "100637043667": 6309,
  "1006370436672655360": 6310,
  "100637088777": 8501,
  "1006370887778557953": 8504,
  "10063709": 5616,
  "10063709573830": 8154,
  "1006370957383032834": 8155,
  "100637099039": 2849,
  "1006370990396338176": 2850,
  "10063724534": 1904,
  "1006372453457620992": 1906,
  "10063767407": 6749,
  "1006376740766167040": 6753,
  "1006376840": 7205,
  "1006376840263372800": 7208,
  "10063848384": 7231,
  "1006384838436257792": 7232,
  "10064": 1246,
  "100640": 3116,
  "1006401077": 6031,
  "1006401077573373952": 6033,
  "1006405": 3634,
  "100640549348349": 4480,
  "1006405493483495424": 4481,
  "100641080": 1862,
  "100641080227": 2023,
  "1006410802276913152": 2218,
  "1006410802276982784": 7034,
  "1006410802318": 6779,
  "1006410802318856192": 6782,
  "1006411": 6147,
  "10064110": 4302,
  "1006411036314857": 6751,
  "1006411036314857472": 6754,
  "1006411104719757": 8718,
  "1006411104719757312": 8720,
  "10065": 352,
  "100655": 6867,
  "10065599433": 9286,
  "1006559943326085120": 9288,
  "100656": 2084,
  "1006562874": 9172,
  "1006562874007916545": 9181,
  "1006565": 5438,
  "1006566": 5878,
  "10065668": 7950,
  "10065669": 9592,
  "1006567": 1355,
  "1006567418": 8288,
  "1006567418800439": 8296,
  "1006567418800439297": 8297,
  "10065675": 7501,
  "10065679": 8037,
  "10065679315": 7394,
  "1006567931512098818": 7395,
  "1006568": 1052,
  "10065680": 3715,
  "10065683": 4731,
  "1006568475": 4920,
  "1006568475366547456": 5312,
  "10065686": 3784,
  "1006568633": 4673,
  "1006568633437286400": 4702,
  "10065686418": 3987,
  "1006568641830088704": 3988,
  "100656865": 8748,
  "100656866506669": 4493,
  "1006568665066692614": 4496,
  "10065687": 7917,
  "10065689": 6272,
  "1006568955": 9224,
  "1006568955933147136": 9343,
  "1006569": 843,
  "10065690": 4132,
  "1006569048": 8936,
  "1006569048866545664": 8964,
  "10065691145": 9801,
  "1006569114599677952": 9808,
  "10065692500": 7564,
  "1006569250067177472": 7567,
  "100656939": 9389,
  "100656945": 9797,
  "100656947": 3586,
  "1006569474235854848": 3697,
  "10065695": 2981,
  "100656951": 2403,
  "1006569511875563520": 2407,
  "1006569515264": 4888,
  "1006569515264557056": 4890,
  "100656956": 5635,
  "10065695637717": 5934,
  "1006569563771764737": 5935,
  "10065695640": 9212,
  "10065695640403230": 9539,
  "1006569564040323078": 9549,
  "100656967": 9891,
  "100656968": 5003,
  "1006569684743815168": 5278,
  "10065697": 2367,
  "100656970": 5777,
  "1006569701013532673": 6246,
  "1006569708": 5074,
  "1006569708135460864": 5205,
  "100656974867": 4073,
  "1006569748673392640": 4074,
  "1006569749": 7613,
  "1006569749453475840": 7677,
  "1006569758": 8426,
  "1006569758899105792": 8457,
  "100656978039": 9792,
  "1006569780394975232": 9795,
  "10065698": 9608,
  "100656984": 9095,
  "100656995": 3521,
  "1006569958808027": 3601,
  "1006569958808027136": 3602,
  "100657": 393,
  "1006570": 1148,
  "10065700": 2690,
  "10065700878248": 4722,
  "1006570087824830464": 4723,
  "100657020": 8451,
  "10065702057435": 9018,
  "1006570205743583233": 9020,
  "100657024": 7763,
  "1006570242946920": 8468,
  "1006570242946920448": 8470,
  "100657025": 5821,
  "100657025557177": 6213,
  "1006570255571771393": 6214,
  "1006570313": 8923,
  "1006570313688100864": 8956,
  "100657032626": 7475,
  "1006570326266802176": 7476,
  "10065703337": 9416,
  "1006570333732651008": 9418,
  "1006570372": 9828,
  "1006570372269871104": 9874,
  "10065704": 5749,
  "10065705": 6991,
  "100657050": 4716,
  "1006570502515654656": 5820,
  "10065707": 4058,
  "100657072452022": 5366,
  "1006570724520222728": 5367,
  "10065708": 7335,
  "10065708704": 4787,
  "1006570870427570180": 4794,
  "10065709": 9383,
  "10065710": 6086,
  "100657115": 9350,
  "1006571165": 9921,
  "100657116554295": 9985,
  "1006571165542952960": 9986,
  "100657119": 8515,
  "10065714": 7409,
  "10065715": 9790,
  "10065716": 8259,
  "100657169": 6834,
  "1006571696940183552": 6968,
  "10065717": 1966,
  "10065717430": 2323,
  "1006571743027187712": 2326,
  "10065718": 6802,
  "10065719": 4871,
  "1006571908140": 8800,
  "1006571908140228608": 8802,
  "1006572": 1537,
  "10065720": 4325,
  "100657212": 4224,
  "1006572126373986305": 4363,
  "100657213468": 3713,
  "1006572134682877952": 3714,
  "1006572147924": 7172,
  "1006572147924348928": 7175,
  "10065723": 5822,
  "100657238397": 9109,
  "1006572383975587840": 9112,
  "10065724": 1486,
  "10065724409": 6881,
  "1006572440926019584": 6885,
  "1006572464367": 7049,
  "1006572464367792128": 7050,
  "100657247717": 1844,
  "1006572477177159686": 1845,
  "10065725": 2564,
  "100657250": 7183,
  "10065725287": 8238,
  "1006572528767324160": 8239,
  "1006572536505696256": 6972,
  "10065726": 1306,
  "1006572635130": 2529,
  "1006572635130552320": 2531,
  "10065726652330": 7675,
  "1006572665233031173": 7678,
  "10065726780": 6498,
  "1006572678013042690": 6510,
  "1006572689": 5672,
  "1006572689434333184": 9037,
  "10065726896857": 9430,
  "1006572689685745664": 9432,
  "1006572694": 2619,
  "1006572694123343872": 2621,
  "10065727": 3704,
  "100657275": 7885,
  "100657275289827328": 8719,
  "1006572752898273287": 8721,
  "100657277": 2156,
  "100657277423037": 2192,
  "1006572774230376448": 2193,
  "10065728": 5144,
  "10065729": 1340,
  "100657290": 7465,
  "10065729628": 2710,
  "1006572962818842624": 2714,
  "100657297": 9691,
  "10065729743": 4106,
  "1006572974349008896": 4117,
  "10065729799820": 9997,
  "1006572979982032896": 9999,
  "1006572983425": 4107,
  "1006572983425462272": 4118,
  "10065729949": 4102,
  "1006572994930458629": 4116,
  "1006573": 1453,
  "10065730": 3258,
  "100657300": 1492,
  "1006573002203361280": 1512,
  "100657307756": 8569,
  "1006573077562470401": 8570,
  "100657309": 4031,
  "10065730970198": 4095,
  "1006573097019830272": 4096,
  "1006573140": 6544,
  "1006573140837691392": 6608,
  "1006573162": 9622,
  "10065731834": 6328,
  "1006573183477207040": 6330,
  "1006573186": 9951,
  "1006573186186711040": 9998,
  "100657328": 8434,
  "10065733": 4151,
  "10065734": 3588,
  "10065735": 6142,
  "10065736952": 8536,
  "1006573695219859456": 8538,
  "10065737": 6043,
  "100657385": 9894,
  "10065739": 4646,
  "1006574": 1533,
  "10065740": 5267,
  "10065741": 7907,
  "10065741151956": 8989,
  "1006574115195621376": 8990,
  "10065742": 6463,
  "1006574230140432385": 8600,
  "100657424": 4882,
  "1006574247": 9477,
  "1006574247345557504": 9526,
  "1006574248557568": 5079,
  "1006574248557568001": 5082,
  "10065743": 4402,
  "100657432845077": 5077,
  "1006574328450777088": 5081,
  "10065743367": 5014,
  "1006574336759746561": 5016,
  "100657434": 9340,
  "10065743432859": 9787,
  "1006574343285927936": 9788,
  "10065744": 5572,
  "10065745": 7778,
  "10065747": 5712,
  "10065749": 4964,
  "100657493644449": 8836,
  "1006574936444493825": 8839,
  "100657494": 7316,
  "1006574943943909": 7493,
  "1006574943943909377": 7494,
  "1006575": 1430,
  "10065750": 4545,
  "10065753": 4474,
  "100657530": 7338,
  "1006575307761991680": 7635,
  "100657531460": 6176,
  "1006575314602942464": 6230,
  "1006575378": 5546,
  "100657537869190": 5605,
  "1006575378691907584": 5606,
  "10065754": 6769,
  "100657547": 6327,
  "100657547875135": 6682,
  "1006575478751354881": 6683,
  "10065755": 2782,
  "10065755316": 9261,
  "1006575531695849472": 9265,
  "100657557904": 6198,
  "1006575579041226752": 6200,
  "10065756": 6143,
  "10065757": 3822,
  "100657577": 8951,
  "1006575850": 8652,
  "1006575850475511808": 8731,
  "10065759": 7051,
  "1006576": 2255,
  "10065760": 5063,
  "1006576062480": 9493,
  "1006576062480859136": 9495,
  "10065762": 5408,
  "100657624": 9230,
  "10065762518": 8740,
  "1006576251828490240": 8742,
  "10065764": 9713,
  "100657640": 6172,
  "1006576405742682": 6385,
  "1006576405742682112": 6386,
  "10065765": 8832,
  "10065766": 7444,
  "10065767": 8761,
  "10065768": 6221,
  "10065769": 2812,
  "1006576928": 6067,
  "1006576928462069760": 6078,
  "1006576936112": 5123,
  "1006576936112386048": 5124,
  "1006577": 1037,
  "10065770": 5089,
  "1006577377": 9317,
  "1006577377592279040": 9394,
  "1006577378": 9318,
  "1006577378674511877": 9344,
  "10065774": 5323,
  "1006577409": 3910,
  "1006577409594834944": 3914,
  "100657748": 4346,
  "10065774821060": 4494,
  "1006577482106011648": 4497,
  "10065775": 2919,
  "1006577587907": 3842,
  "1006577587907452929": 3843,
  "10065776": 5461,
  "100657764": 3973,
  "1006577641493815": 4041,
  "1006577641493815298": 4042,
  "100657766": 9390,
  "10065776681024": 9148,
  "1006577668102414336": 9149,
  "100657767": 2904,
  "1006577673483837441": 3418,
  "100657769": 5645,
  "10065777": 1943,
  "1006577721265": 6803,
  "1006577721265270786": 6804,
  "1006577728": 5752,
  "1006577728504594433": 5780,
  "100657779887": 7857,
  "1006577798872469506": 7872,
  "10065778035": 5370,
  "1006577803561664512": 5379,
  "1006577850": 9467,
  "1006577850907062273": 9513,
  "100657787": 5609,
  "1006577878878654464": 9080,
  "10065779": 1432,
  "100657790": 9040,
  "100657791037": 4451,
  "1006577910378090496": 4459,
  "1006577913448": 3778,
  "1006577913448271873": 3779,
  "10065779358": 4078,
  "1006577935812194304": 4080,
  "100657793712": 9893,
  "1006577937129328641": 9900,
  "10065779507": 9319,
  "1006577950710476801": 9324,
  "1006577988": 8602,
  "1006577988215791616": 8709,
  "100657799": 9677,
  "1006578": 1219,
  "10065780": 2472,
  "1006578055": 6709,
  "1006578055597322240": 7388,
  "100657809540": 7768,
  "1006578095405531141": 7770,
  "100657810312": 6660,
  "1006578103123087360": 6662,
  "100657816": 9251,
  "10065781818": 9852,
  "1006578181883813888": 9859,
  "10065782": 8063,
  "1006578250": 8208,
  "1006578250557132800": 8278,
  "100657826": 4783,
  "1006578261227": 8691,
  "1006578261227425792": 8694,
  "1006578264796": 7387,
  "1006578264796692480": 7390,
  "10065783": 5141,
  "10065784": 2724,
  "1006578433780940800": 7414,
  "1006578485907": 5255,
  "1006578485907808256": 5256,
  "10065785": 3545,
  "100657859": 6555,
  "10065786": 3687,
  "100657860": 5296,
  "10065786035119": 9126,
  "1006578603511992320": 9129,
  "1006578618909": 5053,
  "1006578618909118464": 5054,
  "100657864": 5328,
  "1006578645077": 7597,
  "1006578645077352448": 7606,
  "1006578659136": 7482,
  "1006578659136684032": 7483,
  "10065787": 1973,
  "1006578738": 4301,
  "1006578738199482369": 4313,
  "1006578769325": 4987,
  "1006578769325256704": 4988,
  "10065788": 7079,
  "1006578858": 6454,
  "1006578858299191296": 6471,
  "100657886": 5491,
  "1006578861956403201": 5594,
  "10065789": 2293,
  "100657895515": 4192,
  "1006578955154051072": 4194,
  "1006579": 1660,
  "10065790": 3996,
  "10065790758912": 7542,
  "1006579075891257346": 7544,
  "10065792": 9347,
  "10065793": 9279,
  "10065794": 7745,
  "10065795": 3780,
  "100657952": 8634,
  "1006579522408517633": 8862,
  "1006579545602": 7524,
  "1006579545602809856": 7525,
  "10065796": 4876,
  "10065797": 4326,
  "1006579738574": 9840,
  "1006579738574499842": 9843,
  "10065798": 8733,
  "10065799": 6962,
  "100658": 1761,
  "1006580": 1422,
  "10065800": 8827,
  "10065803965": 9379,
  "1006580396539068416": 9444,
  "1006581": 6291,
  "1008": 2373,
  "100864": 8875,
  "1009": 4712,
  "101": 2076,
  "1013": 4751,
  "1013532673": 6245,
  "1015": 6610,
  "1018": 8734,
  "102": 2004,
  "1024": 2241,
  "1026": 7957,
  "103": 1727,
  "1030": 9963,
  "10312": 6548,
  "1034": 3700,
  "1035": 7110,
  "1037": 3692,
  "104": 1497,
  "1040": 5393,
  "1045": 7052,
  "1047": 4582,
  "104719757": 8716,
  "10476801": 9320,
  "105": 1373,
  "1050": 9356,
  "1055": 8869,
  "1056": 5661,
  "1057": 4032,
  "105792": 8401,
  "1059": 9911,
  "106": 1763,
  "1067": 9012,
  "1069": 4930,
  "107": 1490,
  "1072": 3592,
  "10732288": 7549,
  "1075": 8870,
  "1077": 4594,
  "107841": 3835,
  "1079": 6857,
  "10796": 9122,
  "107973": 9386,
  "108": 1851,
  "1080": 1096,
  "1083": 2846,
  "10836898091008": 3144,
  "1084": 5707,
  "1088": 8563,
  "1089": 1475,
  "109": 1332,
  "1090": 1892,
  "1092": 8012,
  "10920": 6435,
  "1097": 9066,
  "1099": 8360,
  "11": 695,
  "110": 1187,
  "1104": 7168,
  "11040": 8624,
  "111": 2072,
  "1110": 9428,
  "1114": 6791,
  "1115": 8250,
  "11160": 3774,
  "1117": 6854,
  "1119": 9051,
  "112": 1174,
  "1120": 7641,
  "112112": 6547,
  "113": 1828,
  "1133": 8539,
  "1134": 9403,
  "11344": 9636,
  "1136": 6393,
  "114": 1622,
  "1145": 7404,
  "114858": 9873,
  "1148581069": 9876,
  "115": 1308,
  "11528": 9745,
  "116": 1288,
  "11648": 4388,
  "1165": 6641,
  "1168": 8053,
  "117": 1275,
  "118": 1281,
  "11808": 6649,
  "118400": 3788,
  "118464": 5026,
  "11877": 9270,
  "119": 1640,
  "12": 359,
  "120": 1175,
  "1200": 802,
  "12006912": 4724,
  "12098818": 7393,
  "121": 2198,
  "1219": 6797,
  "12194": 4022,
  "12194304": 4079,
  "122": 2001,
  "1226": 4444,
  "1226752": 6199,
  "1227": 6619,
  "123": 1874,
  "1232": 9810,
  "1233": 2328,
  "123343872": 2620,
  "1237": 5698,
  "123793": 7101,
  "124": 1076,
  "12450": 7094,
  "1246520": 1540,
  "12465203204": 1542,
  "1247": 5978,
  "1248": 9329,
  "1249": 8550,
  "125": 1317,
  "1250": 5412,
  "1254": 8933,
  "1255": 6717,
  "126": 1861,
  "126335": 5908,
  "1264": 7639,
  "1265": 6938,
  "1269": 4462,
  "127": 1924,
  "1273": 7598,
  "127327": 9775,
  "1276": 5875,
  "1277": 9557,
  "127865": 8194,
  "128": 1277,
  "1280": 992,
  "1287": 8672,
  "1289": 9773,
  "129": 1712,
  "1296": 4832,
  "1297": 6959,
  "13": 452,
  "130": 1053,
  "13042690": 6507,
  "131": 2962,
  "1312": 8030,
  "1313": 9950,
  "1315": 1921,
  "131511528": 9952,
  "131516": 2313,
  "131533": 9753,
  "1317": 9621,
  "1318": 8124,
  "1319": 9427,
  "132": 1305,
  "1324": 7009,
  "1327": 5723,
  "132738": 7461,
  "1328": 6993,
  "132800": 7974,
  "1329": 8979,
  "133": 1592,
  "1332": 9805,
  "134": 1553,
  "1340": 6572,
  "134251": 4516,
  "1344": 4676,
  "13448": 3773,
  "13468": 3292,
  "135": 1225,
  "1354": 4411,
  "135460864": 5204,
  "1355": 9476,
  "1357": 7003,
  "136": 1320,
  "1360": 1881,
  "13604603905": 2099,
  "1361": 7376,
  "136110": 9142,
  "1365": 4914,
  "1366": 9023,
  "1367": 7309,
  "1368": 8225,
  "1369": 9384,
  "137": 1489,
  "1372": 8439,
  "1375": 5831,
  "137585": 9709,
  "1376": 6777,
  "1377": 3990,
  "1377409": 5911,
  "138": 1496,
  "1380": 8148,
  "1384": 9435,
  "13888": 6087,
  "139": 1563,
  "1390": 8286,
  "1392": 9839,
  "1393": 5023,
  "1399": 7457,
  "14": 429,
  "140": 987,
  "1405": 8438,
  "1408": 6860,
  "141": 3277,
  "1416": 4513,
  "142": 2388,
  "1420": 6953,
  "1424": 5334,
  "1425": 6237,
  "1429": 6936,
  "143": 2663,
  "14336": 8477,
  "144": 1834,
  "1440": 5040,
  "1445": 9850,
  "1447": 8180,
  "1448": 8021,
  "1449": 8243,
  "145": 1361,
  "1450": 7958,
  "1454": 8746,
  "1455": 9935,
  "1456": 9351,
  "1457": 8191,
  "1458": 8573,
  "1459": 3256,
  "145906": 7781,
  "14595922": 7583,
  "1459592238": 7584,
  "146": 1567,
  "1460": 4574,
  "1465": 9449,
  "1468": 6863,
  "1469": 6654,
  "147": 1986,
  "147136": 9283,
  "1472": 9601,
  "1473": 9825,
  "1476": 6376,
  "1477": 9741,
  "147818": 9626,
  "1478189997": 9688,
  "1479": 2362,
  "147905": 9945,
  "147924": 7142,
  "1479552": 3512,
  "148": 1817,
  "1480": 8714,
  "1484": 8312,
  "1485": 9241,
  "14857": 6655,
  "1487": 7256,
  "1488": 5182,
  "14881": 9978,
  "1489": 9791,
  "149": 1515,
  "1493815": 4040,
  "1497": 8301,
  "1499": 5496,
  "15": 343,
  "150": 482,
  "1500": 9339,
  "1504": 7578,
  "150725": 9506,
  "1507257822": 9605,
  "150815": 4931,
  "1508158799": 4935,
  "151": 3195,
  "1510": 7484,
  "1512": 7928,
  "1514": 6465,
  "1515": 6155,
  "1516": 6952,
  "1517": 6545,
  "1518": 6202,
  "1519": 4051,
  "151956": 8972,
  "152": 1131,
  "1520": 4926,
  "15212": 9644,
  "1523": 5200,
  "1524": 4253,
  "1525": 2402,
  "15252507": 7903,
  "1525250750": 7905,
  "152565": 6045,
  "1525651416": 6118,
  "1526": 3643,
  "15264": 4050,
  "1527": 1762,
  "1527239": 2728,
  "1527239251": 2729,
  "1527270": 6081,
  "1527270685": 6082,
  "1527645": 9777,
  "1527645181": 9807,
  "152785484": 6893,
  "1527854841": 6896,
  "1528": 798,
  "152867": 7490,
  "1528679551": 8290,
  "15288": 1000,
  "1528819": 1600,
  "15288199": 6988,
  "152882": 1068,
  "1528820": 1359,
  "15288200": 6722,
  "15288212": 7767,
  "15288214": 8991,
  "15288215": 9547,
  "15288216": 7418,
  "15288217": 6262,
  "15288218": 4661,
  "15288219": 4843,
  "1528822": 2183,
  "15288220": 5357,
  "15288224": 6823,
  "15288225": 7025,
  "15288226": 7900,
  "15288227": 8406,
  "153": 2922,
  "1533": 3359,
  "1536": 5717,
  "154": 2509,
  "1548": 8897,
  "155": 1724,
  "156": 1995,
  "1568": 7585,
  "1569": 6571,
  "157": 2024,
  "15749": 7949,
  "15749345282": 8169,
  "158": 2963,
  "1584": 8253,
  "159": 2366,
  "1597": 7835,
  "16": 399,
  "160": 1192,
  "1600": 8564,
  "161": 2294,
  "1616": 4674,
  "162": 2393,
  "163": 3234,
  "1632": 8163,
  "164": 2022,
  "1640": 7133,
  "1644": 9405,
  "1649": 8464,
  "165": 1790,
  "16545": 8315,
  "166": 2415,
  "1661": 5974,
  "1662": 7062,
  "1666": 8973,
  "167": 2394,
  "168": 1751,
  "1680": 3200,
  "1680177308": 6392,
  "1685": 9136,
  "169": 1825,
  "1695": 7896,
  "1696": 5164,
  "1697": 7667,
  "17": 450,
  "170": 1760,
  "17079": 6592,
  "17079858": 6915,
  "171": 5464,
  "172": 4717,
  "1728": 5439,
  "1729": 8264,
  "173": 3004,
  "174": 2158,
  "1740": 5708,
  "174086": 7077,
  "1744": 5543,
  "1745": 7177,
  "175": 2058,
  "1754": 3500,
  "175400634": 3918,
  "176": 1099,
  "1760": 8147,
  "17633": 7279,
  "177": 1770,
  "1770": 7410,
  "177308": 6391,
  "1776": 6891,
  "1777": 7478,
  "178": 2010,
  "179": 2344,
  "1790": 8525,
  "1799": 8040,
  "18": 388,
  "180": 1109,
  "1800": 8541,
  "1805": 5940,
  "180583": 8139,
  "18069": 6759,
  "1808": 9862,
  "181": 3026,
  "1814": 4825,
  "1817": 4601,
  "1818": 5695,
  "1819": 8685,
  "182": 4678,
  "1820": 5688,
  "1824": 9906,
  "1825": 9580,
  "1826": 5368,
  "183": 3527,
  "18336": 8162,
  "1834": 4453,
  "1835": 5483,
  "183552": 6831,
  "184": 1699,
  "1840": 4353,
  "18432": 4186,
  "18475": 3995,
  "185": 2248,
  "1850": 7884,
  "1857": 7454,
  "1859": 9229,
  "186": 2706,
  "1867": 7247,
  "186711040": 9996,
  "1869": 7809,
  "187": 1599,
  "18755": 2387,
  "1875563520": 2406,
  "1878": 8476,
  "188": 2939,
  "1884": 2430,
  "18842624": 2712,
  "1889": 9634,
  "189": 2559,
  "18909": 5021,
  "1897": 9059,
  "19": 440,
  "190": 1811,
  "1900": 6939,
  "1904": 9174,
  "1905": 1700,
  "19053825": 1807,
  "191": 5049,
  "191296": 6434,
  "1917": 4262,
  "192": 1752,
  "1920": 1129,
  "1929": 5650,
  "19293441": 6501,
  "193": 2399,
  "1936": 8089,
  "194": 1482,
  "1941": 1372,
  "19413393": 1386,
  "1944": 4983,
  "1949": 7866,
  "195": 1767,
  "1951661": 8204,
  "1951661306": 8205,
  "1952": 6153,
  "1956403201": 5593,
  "1957": 5552,
  "19584": 6637,
  "196": 3060,
  "1964": 9093,
  "1967": 7819,
  "1968": 6763,
  "1969": 9627,
  "197": 2111,
  "19716": 8653,
  "19757": 8400,
  "198": 1883,
  "1984": 9143,
  "19859": 8417,
  "19859456": 8537,
  "199": 1122,
  "1991680": 7582,
  "19948": 3763,
  "199482369": 4312,
  "19987": 1800,
  "1998719053825": 1808,
  "2": 21,
  "20": 326,
  "200": 1407,
  "2000": 5406,
  "201": 1796,
  "2013": 7734,
  "2014": 7690,
  "2018": 3050,
  "2019": 1556,
  "201900": 8318,
  "202": 3607,
  "2022": 1656,
  "2026": 929,
  "2027": 6429,
  "203": 3392,
  "2032": 9870,
  "204": 2488,
  "2048": 1984,
  "205": 2627,
  "206": 3650,
  "2060": 6768,
  "20628": 9641,
  "207": 2616,
  "208": 2068,
  "209": 2270,
  "2092": 3669,
  "2096": 9166,
  "20992": 1886,
  "21": 972,
  "210": 2351,
  "21060": 4466,
  "211": 9868,
  "2113": 7491,
  "2117": 5887,
  "211703938": 7749,
  "212": 3129,
  "2122": 6192,
  "21265": 6760,
  "213": 3023,
  "2130": 8755,
  "21355": 9959,
  "21376": 8690,
  "214": 3805,
  "215": 2771,
  "215791616": 8707,
  "216": 1902,
  "2160": 7754,
  "217": 3520,
  "2176": 1551,
  "2176000": 1654,
  "218": 1832,
  "2185039": 6294,
  "2185039897": 6295,
  "21889": 5904,
  "219": 3183,
  "2192": 8134,
  "22": 661,
  "220": 1227,
  "2203361280": 1511,
  "221": 5680,
  "222": 2305,
  "2224": 9629,
  "2225": 3824,
  "22258315": 5143,
  "2227": 8522,
  "223": 4349,
  "224": 2109,
  "225": 3078,
  "226": 2993,
  "2265": 9378,
  "227": 1406,
  "228": 2154,
  "2280": 7762,
  "2283": 7771,
  "228608": 8750,
  "229": 2967,
  "23": 892,
  "230": 3122,
  "231": 7577,
  "2310": 8546,
  "2318": 5422,
  "232": 1925,
  "233": 3879,
  "234": 2927,
  "235": 2799,
  "236": 4424,
  "2369": 3307,
  "237": 3246,
  "238": 4558,
  "2387": 7989,
  "239": 2546,
  "24": 471,
  "240": 1415,
  "2405015": 4130,
  "2405015897": 4131,
  "24085": 8213,
  "2408517633": 8861,
  "241": 4478,
  "2416": 9358,
  "2417": 7595,
  "242": 4300,
  "243": 6487,
  "2433": 6623,
  "24386": 9334,
  "243866714": 9431,
  "244": 2145,
  "2448": 5664,
  "245": 1393,
  "2452022": 5365,
  "24534": 1899,
  "2459": 2203,
  "24595522": 2329,
  "246": 2172,
  "2463": 3229,
  "246318475": 4025,
  "2464": 4406,
  "2465": 3864,
  "2469": 6405,
  "2469506": 7870,
  "247": 2518,
  "2470": 7059,
  "2470401": 8560,
  "248": 2681,
  "249": 2666,
  "25": 475,
  "250": 1607,
  "2500": 5561,
  "2507": 6601,
  "251": 2296,
  "2515": 4205,
  "2515654656": 5819,
  "2518": 6457,
  "2519": 7925,
  "252": 6098,
  "2524": 2882,
  "252429": 3372,
  "253": 5373,
  "2532": 4446,
  "2539": 6483,
  "254": 2138,
  "2544": 9982,
  "255": 2951,
  "256": 1360,
  "2560": 6170,
  "256000": 5847,
  "2561": 7655,
  "2565": 8207,
  "256704": 4977,
  "257": 2282,
  "2571": 6298,
  "257119293441": 6502,
  "2576": 9943,
  "2577": 5013,
  "257792": 7191,
  "258": 2485,
  "259": 2181,
  "25920": 8993,
  "26": 472,
  "260": 1565,
  "2600": 6377,
  "26019584": 6882,
  "2605": 7089,
  "2606": 5574,
  "26085120": 9284,
  "261": 6764,
  "2614": 3563,
  "2615": 5447,
  "2619": 7668,
  "262": 4873,
  "2620": 7263,
  "2624": 2417,
  "263": 4881,
  "26337": 7027,
  "263372800": 7207,
  "2634": 7996,
  "264": 1875,
  "2640": 2995,
  "2649": 4292,
  "265": 1667,
  "2650": 5797,
  "265035": 7163,
  "2655233": 5171,
  "2655360": 6288,
  "266": 2301,
  "2661": 4488,
  "2663": 9368,
  "2664": 4339,
  "26642655233": 5174,
  "2665": 5925,
  "267": 2444,
  "2673": 5309,
  "2677": 9651,
  "268": 2401,
  "2682": 5497,
  "2688": 9682,
  "269": 2177,
  "2694": 3154,
  "26987": 9509,
  "269871104": 9842,
  "27": 473,
  "270": 1972,
  "2705": 5781,
  "2707": 4523,
  "270786": 6788,
  "271": 5783,
  "2710": 9498,
  "2718": 1784,
  "271873": 3766,
  "27187712": 2325,
  "272": 1286,
  "2720": 5114,
  "27239": 2658,
  "2725": 6180,
  "2726": 7810,
  "2727": 5868,
  "2728": 1928,
  "273": 3338,
  "27328": 6520,
  "2739": 5219,
  "2739200": 6121,
  "274": 2638,
  "2747": 5390,
  "274794931": 5980,
  "275": 2312,
  "2752": 9236,
  "27570": 4748,
  "27570180": 4793,
  "276": 3300,
  "2764": 3090,
  "2768": 9811,
  "2769": 9376,
  "277": 1630,
  "278": 3057,
  "2784": 5165,
  "279": 2265,
  "27936": 9056,
  "27952": 8472,
  "279523741696": 8640,
  "28": 462,
  "280": 1947,
  "2800": 3267,
  "281": 4537,
  "2816": 8939,
  "282": 3427,
  "283": 5322,
  "284": 2617,
  "284112": 9013,
  "2841125981": 9019,
  "2845077": 5071,
  "2847": 5701,
  "28474781": 7131,
  "2849": 8396,
  "28490": 8620,
  "28490240": 8741,
  "285": 2352,
  "28564": 9252,
  "285646337": 9443,
  "2858": 3444,
  "286": 3765,
  "2861": 5685,
  "2864": 3331,
  "286400": 4700,
  "2865": 7438,
  "28684": 4936,
  "2868400327": 4963,
  "287": 2632,
  "2877": 3351,
  "2877952": 3710,
  "288": 2000,
  "2880": 7005,
  "289": 2598,
  "2898": 7594,
  "289827328": 8626,
  "2898537": 8999,
  "29": 518,
  "290": 2322,
  "2905": 9648,
  "291": 6849,
  "2912": 8365,
  "292": 5039,
  "2929": 2861,
  "292975": 7818,
  "2929751247": 7880,
  "293": 4698,
  "294": 2279,
  "2942464": 6212,
  "29439": 9659,
  "2944": 9542,
  "2945": 8646,
  "2946920": 8467,
  "295": 3197,
  "296": 2532,
  "2960": 6167,
  "297": 2187,
  "2976": 4422,
  "298": 2353,
  "299": 2408,
  "2990": 4327,
  "2990593": 5148,
  "299191296": 6468,
  "2999": 2751,
  "29990": 5177,
  "299902465": 5223,
  "3": 22,
  "30": 408,
  "300": 1022,
  "3000": 6342,
  "3001": 4379,
  "3002": 2655,
  "30088704": 3984,
  "3009": 7934,
  "3009007222": 9884,
  "301": 3870,
  "3014": 6062,
  "30140432385": 8599,
  "302": 2650,
  "30233089": 4939,
  "30268": 6981,
  "30272": 4030,
  "303": 5399,
  "3035": 9439,
  "3037": 1985,
  "304": 1168,
  "3042": 5176,
  "3044": 2679,
  "3045": 3438,
  "30458629": 4113,
  "3046": 5375,
  "30464": 4244,
  "3048": 9546,
  "305": 1597,
  "3051": 7342,
  "3052": 8496,
  "3053": 6333,
  "3055": 4554,
  "3056": 6611,
  "3057": 2822,
  "3058": 6569,
  "3059": 2583,
  "306": 1276,
  "3060": 4209,
  "3061": 6844,
  "3063": 4355,
  "3064": 8252,
  "3066": 4006,
  "3067": 3163,
  "3068": 3198,
  "3069": 8387,
  "307": 1701,
  "3070": 9305,
  "3072": 6992,
  "3076": 6097,
  "3077": 9994,
  "308": 1618,
  "3081": 7445,
  "3082": 4647,
  "3083": 8820,
  "3084": 6179,
  "30863": 3939,
  "30863156": 3943,
  "3087": 5127,
  "3087360": 6661,
  "3088": 5639,
  "3089": 4207,
  "309": 2125,
  "3092": 5302,
  "3093": 3434,
  "31": 852,
  "310": 6183,
  "31173": 7464,
  "312": 2534,
  "3120": 8481,
  "313": 2778,
  "314": 3469,
  "315": 3265,
  "316": 3893,
  "3164": 8845,
  "3165": 9400,
  "317": 3826,
  "318": 2820,
  "318180583": 8142,
  "319": 2810,
  "32": 617,
  "320": 627,
  "3200": 6389,
  "320000": 1757,
  "3201": 5331,
  "32018": 794,
  "3204": 1530,
  "321": 4709,
  "322": 3729,
  "322240": 7380,
  "32288": 7228,
  "323": 6049,
  "3230": 6871,
  "3232": 6362,
  "3233": 8960,
  "324": 2410,
  "325": 2439,
  "326": 3092,
  "32626": 6855,
  "3265": 5197,
  "32651008": 9417,
  "327": 4038,
  "328": 2045,
  "32834": 8065,
  "32859": 9731,
  "32896": 9206,
  "329": 3149,
  "33": 375,
  "330": 1674,
  "33089": 4838,
  "331": 6102,
  "3312450": 7411,
  "3312450384": 7417,
  "331840": 5746,
  "332": 6027,
  "3328": 7128,
  "333": 4220,
  "333184": 8945,
  "3333": 680,
  "333333": 882,
  "3337": 6735,
  "334": 3542,
  "335": 2584,
  "3356": 9600,
  "336": 1193,
  "3360": 8230,
  "3361280": 1510,
  "3367": 4403,
  "3369": 9690,
  "337": 1737,
  "3370": 8491,
  "3376": 9132,
  "3377": 6878,
  "33780940800": 7412,
  "338": 2499,
  "339": 1890,
  "3392": 8492,
  "3392640": 4072,
  "3393": 1369,
  "34": 504,
  "340": 1789,
  "3400": 9359,
  "3409": 9050,
  "341": 9774,
  "3418": 9145,
  "342": 6287,
  "34208": 7919,
  "343": 8412,
  "3434": 7814,
  "3437": 8780,
  "344": 2381,
  "3440": 6334,
  "3441": 6028,
  "345": 2739,
  "345282": 8129,
  "3455": 7125,
  "345557504": 9525,
  "3456": 6099,
  "3457": 9312,
  "346": 2838,
  "347": 3273,
  "348": 3386,
  "3483": 2426,
  "348349": 4467,
  "3483837441": 3417,
  "3488": 5727,
  "3489": 4911,
  "348928": 7117,
  "349": 2837,
  "3496": 6824,
  "349630268": 7024,
  "35": 586,
  "350": 3095,
  "3504": 8042,
  "35119": 8521,
  "35130": 2511,
  "3515": 3476,
  "3516": 9637,
  "352": 3384,
  "352448": 7538,
  "35285": 4979,
  "353": 3671,
  "35340": 3150,
  "35340690": 3164,
  "354": 4008,
  "355": 3957,
  "356": 3009,
  "35624": 5699,
  "3568": 5290,
  "3569": 9606,
  "357": 3320,
  "358": 2354,
  "3584": 8083,
  "359": 3382,
  "36": 658,
  "360": 1196,
  "3600": 9676,
  "361": 4218,
  "3610": 8027,
  "36112": 5051,
  "361476": 7997,
  "361476003": 8000,
  "362": 4633,
  "3620": 6536,
  "36257792": 7230,
  "363": 2653,
  "36314857": 6750,
  "364": 3727,
  "3644449": 8835,
  "365": 2517,
  "36505696256": 6971,
  "366": 3548,
  "366547456": 5310,
  "3667": 5530,
  "367": 2705,
  "368": 1822,
  "369": 3305,
  "37": 561,
  "370": 2725,
  "371": 6012,
  "3712": 5893,
  "37175": 9655,
  "372": 4123,
  "3728": 9156,
  "373": 8260,
  "3733": 9643,
  "374": 1703,
  "3741696": 8630,
  "375": 3590,
  "376": 2770,
  "377": 2044,
  "37717": 5903,
  "3772": 7356,
  "378": 2586,
  "3788": 6178,
  "379": 2473,
  "38": 699,
  "380": 2978,
  "381": 3675,
  "3815": 2761,
  "3815168": 5276,
  "382": 3366,
  "3825": 1688,
  "383": 950,
  "3830": 7200,
  "384": 1967,
  "385": 2284,
  "38574": 9772,
  "386": 1601,
  "3860": 4328,
  "386048": 5120,
  "387": 2744,
  "388": 4011,
  "3889": 9168,
  "389": 2766,
  "39": 524,
  "390": 2624,
  "3904": 7736,
  "3905": 2028,
  "39068416": 9207,
  "39085": 8603,
  "3909": 6299,
  "391": 5481,
  "392": 2942,
  "393": 4286,
  "394": 3082,
  "3940": 6071,
  "3943909": 7492,
  "395": 3803,
  "3952": 5181,
  "396": 4139,
  "39608": 6210,
  "396081365": 6239,
  "3965": 7948,
  "3968": 8703,
  "397": 1476,
  "398": 5033,
  "3986": 4129,
  "3986305": 4357,
  "3987": 5834,
  "39871219": 9263,
  "3987121992": 9266,
  "399": 3098,
  "3999": 9672,
  "4": 23,
  "40": 614,
  "400": 1728,
  "400628": 7940,
  "400628619": 7955,
  "400640": 7020,
  "401": 2853,
  "402": 6617,
  "403": 9675,
  "403230": 9515,
  "404": 4961,
  "405": 2489,
  "4051072": 4193,
  "406": 2496,
  "407": 2969,
  "4070070": 9924,
  "4070070508": 9927,
  "408": 3242,
  "409": 1911,
  "41": 910,
  "410": 8308,
  "4112": 6692,
  "412": 4227,
  "413": 8386,
  "414": 2461,
  "416": 7720,
  "417": 9345,
  "4178": 4600,
  "417867338": 4640,
  "418": 3420,
  "419": 8551,
  "42": 877,
  "420": 7295,
  "4224": 8156,
  "423": 8726,
  "423037": 2191,
  "4235": 2946,
  "42355887": 8354,
  "4235854848": 3696,
  "424": 5997,
  "425": 1426,
  "4251": 4405,
  "425792": 8637,
  "426": 4154,
  "42690": 6300,
  "427": 8878,
  "428": 7313,
  "429": 5965,
  "43": 912,
  "430": 1344,
  "432": 8214,
  "433": 9768,
  "434": 2332,
  "434333184": 9034,
  "435": 7081,
  "4368": 8961,
  "437": 3203,
  "437286400": 4701,
  "4385": 9798,
  "43872": 2484,
  "439": 5139,
  "44": 598,
  "440": 2953,
  "441": 6598,
  "4415": 5796,
  "442": 7294,
  "4427": 4029,
  "443": 7106,
  "4433": 4844,
  "4439": 7268,
  "444": 4790,
  "4446": 4614,
  "4449": 6862,
  "445": 4557,
  "446": 2223,
  "4464": 7115,
  "447": 2579,
  "4475": 8987,
  "448": 2234,
  "449": 5545,
  "45": 779,
  "450": 5683,
  "452": 7610,
  "452929": 3834,
  "453": 3888,
  "4534": 4953,
  "453475840": 7676,
  "4539": 7362,
  "454": 4423,
  "45434": 3917,
  "454340464": 3950,
  "455": 8199,
  "456": 2003,
  "45602": 7481,
  "45664": 5590,
  "457": 8562,
  "458": 5445,
  "459": 6379,
  "46": 904,
  "460": 1637,
  "4603905": 2097,
  "461": 8427,
  "462": 3302,
  "4620": 4802,
  "462069760": 6076,
  "462272": 4093,
  "463": 7290,
  "464": 2805,
  "465": 6068,
  "466": 4874,
  "467": 4392,
  "468": 6421,
  "469": 6460,
  "47": 657,
  "470": 2342,
  "470118400": 3796,
  "471": 4314,
  "472": 2316,
  "473": 5232,
  "474": 2999,
  "4743815168": 5277,
  "475": 2047,
  "4755": 6850,
  "475511808": 8730,
  "476": 5190,
  "477": 3858,
  "478": 4672,
  "4781": 6970,
  "4784": 8763,
  "479": 4013,
  "47912": 2466,
  "4796": 6758,
  "48": 770,
  "480": 2092,
  "4800": 6913,
  "481": 5064,
  "482": 5971,
  "4821889": 5945,
  "484": 1799,
  "48480": 4264,
  "4848018432": 4294,
  "485": 6083,
  "486": 5827,
  "4867": 3647,
  "487": 5032,
  "488": 3610,
  "4881": 5382,
  "489": 8279,
  "49": 476,
  "490": 1930,
  "49008": 4077,
  "49008896": 4115,
  "49088": 3690,
  "491": 1074,
  "4914": 3547,
  "491485084": 4173,
  "4915": 2252,
  "491500016": 2498,
  "492": 8041,
  "493": 5970,
  "493440": 9054,
  "49348349": 4479,
  "4939": 1033,
  "493974431": 2307,
  "493980491": 1101,
  "494": 2610,
  "49430": 2168,
  "494308508": 2175,
  "4944": 3285,
  "495": 3983,
  "496": 1766,
  "4960": 9703,
  "4964": 7902,
  "497": 3134,
  "4975": 8033,
  "4975232": 9783,
  "498": 1914,
  "499": 2704,
  "4992": 9586,
  "499842": 9821,
  "5": 24,
  "50": 654,
  "500": 1668,
  "501": 6697,
  "5015": 3981,
  "502": 8261,
  "5039": 5342,
  "504": 2468,
  "50459": 5004,
  "504594433": 5779,
  "505": 3180,
  "50505": 8473,
  "506": 2808,
  "507": 3728,
  "5077": 3426,
  "508": 4347,
  "5084": 3543,
  "508480": 4254,
  "509": 4172,
  "51": 1064,
  "510": 4891,
  "511": 8886,
  "512": 5509,
  "514": 7817,
  "516": 4216,
  "5162861": 5984,
  "517": 6303,
  "518": 9516,
  "519": 8544,
  "52": 932,
  "520": 7863,
  "521": 6902,
  "5228": 7108,
  "5233": 4419,
  "524": 3629,
  "52486": 7122,
  "525": 7592,
  "527": 7431,
  "529": 8114,
  "53": 927,
  "530": 6189,
  "532": 9939,
  "532673": 6242,
  "532999": 4149,
  "532999756": 4153,
  "533": 7982,
  "534": 3539,
  "535": 9433,
  "536": 7506,
  "5360": 5299,
  "536970": 4660,
  "536970379": 4664,
  "537": 7693,
  "539": 8173,
  "54": 935,
  "540": 2189,
  "5403": 9537,
  "5424": 3819,
  "54295": 9965,
  "544": 6783,
  "547": 7078,
  "549": 2545,
  "55": 609,
  "550": 3083,
  "55040": 7724,
  "5515": 3980,
  "552": 1594,
  "5522": 2289,
  "552320": 2523,
  "553": 5456,
  "5531": 6268,
  "5531141": 7769,
  "554": 3925,
  "5540": 8498,
  "555": 3825,
  "556": 4417,
  "5568": 6441,
  "557": 2906,
  "557056": 4872,
  "557132800": 8276,
  "557177": 6209,
  "558": 5179,
  "5587": 7673,
  "5587840": 9110,
  "559": 3954,
  "56": 949,
  "560": 5791,
  "562": 8335,
  "563": 7804,
  "565": 5735,
  "567": 7181,
  "568": 1935,
  "569": 9957,
  "57": 653,
  "570": 2533,
  "572": 6525,
  "573": 8066,
  "57337": 6003,
  "573373952": 6032,
  "57346": 7510,
  "573830": 8153,
  "574": 2668,
  "5742682": 6384,
  "57435": 8970,
  "575": 2740,
  "57504": 9280,
  "5755": 8419,
  "576": 1397,
  "57620992": 1905,
  "577": 5692,
  "578": 3367,
  "579": 3054,
  "58": 984,
  "580": 9304,
  "5802": 9577,
  "581": 9851,
  "582": 6739,
  "58339": 5959,
  "583396749312": 6053,
  "584": 7922,
  "585": 2909,
  "585265035": 7165,
  "587": 1919,
  "58747912": 2477,
  "588": 5517,
  "5887": 6693,
  "589": 3047,
  "59": 693,
  "590": 3912,
  "591": 8067,
  "592": 3618,
  "5922": 6437,
  "59227": 9192,
  "592279040": 9393,
  "5927": 7695,
  "5929": 7473,
  "593": 3541,
  "594": 2595,
  "594834944": 3913,
  "595": 4799,
  "5957": 8350,
  "596": 4229,
  "5968": 8212,
  "597": 3041,
  "597322240": 7386,
  "5974": 4693,
  "59746561": 5015,
  "597949": 5958,
  "598": 6853,
  "5981": 8658,
  "599": 8325,
  "6": 25,
  "60": 569,
  "600": 1517,
  "60012": 2442,
  "601": 5524,
  "602": 3946,
  "6026": 9257,
  "604": 3585,
  "60416": 9262,
  "605": 3608,
  "606": 4372,
  "6065": 5872,
  "607": 2633,
  "608": 1931,
  "60864": 4968,
  "609": 2591,
  "6096": 6573,
  "60960": 9478,
  "61": 1028,
  "611": 9365,
  "612": 9255,
  "615": 9980,
  "616": 1625,
  "6163": 3502,
  "61664512": 5378,
  "617": 6999,
  "618": 6725,
  "619": 5475,
  "62": 1011,
  "6200": 9134,
  "62273": 9396,
  "6229": 8274,
  "624": 2079,
  "62480": 9459,
  "625": 7305,
  "626": 9877,
  "628": 1609,
  "62874": 9096,
  "629": 9065,
  "63": 980,
  "632": 8200,
  "633": 1462,
  "6335": 5678,
  "6337": 7719,
  "6338": 2630,
  "6338176": 2848,
  "634": 9967,
  "635": 1748,
  "63520": 2371,
  "636": 9941,
  "6369": 6795,
  "637": 1034,
  "6373986305": 4361,
  "638": 6145,
  "639": 9355,
  "64": 498,
  "640": 1018,
  "6403201": 5592,
  "641": 5105,
  "6416": 8894,
  "6418": 3698,
  "642": 3295,
  "643": 6926,
  "6432": 7336,
  "6433": 8866,
  "64367": 6923,
  "644": 3371,
  "6448": 2027,
  "64480": 7881,
  "6449": 7729,
  "645": 2231,
  "64512": 5193,
  "646": 3176,
  "6464": 7065,
  "647": 2593,
  "64737": 5852,
  "648": 2220,
  "6484": 8985,
  "65": 330,
  "650": 1993,
  "6506669": 4491,
  "651": 7792,
  "6512": 9992,
  "652": 3911,
  "6520": 1503,
  "652330": 7652,
  "6528": 7943,
  "6529": 8629,
  "653": 5300,
  "654": 2434,
  "6544": 7321,
  "654656": 5795,
  "6547": 4429,
  "6547456": 5304,
  "655": 3148,
  "656": 1743,
  "6561": 4517,
  "657": 2730,
  "6575": 9940,
  "658": 3400,
  "6583": 7681,
  "659": 2781,
  "659136": 7347,
  "66": 771,
  "660": 8495,
  "661": 7195,
  "6616": 5686,
  "66167040": 6752,
  "662": 5853,
  "6624": 8499,
  "663": 6065,
  "66337": 9976,
  "664": 9632,
  "665": 8262,
  "666": 2453,
  "6666": 2086,
  "666666": 3296,
  "6669": 3519,
  "667": 9293,
  "669": 7500,
  "67": 509,
  "670": 2174,
  "6704": 4015,
  "67084": 5076,
  "671": 6535,
  "6714": 7839,
  "67177": 7551,
  "67177472": 7566,
  "672": 2390,
  "6721": 8917,
  "673": 3544,
  "67324": 8008,
  "67324160": 8234,
  "67338": 4611,
  "674": 3262,
  "67407": 6704,
  "6745": 7686,
  "674511877": 9342,
  "6749": 5010,
  "6749312": 6041,
  "675": 1044,
  "676": 1220,
  "6768": 4675,
  "677": 2374,
  "678": 3831,
  "6784": 8958,
  "679": 3403,
  "68": 545,
  "680": 767,
  "6801": 6691,
  "6802176": 7470,
  "681": 1869,
  "681024": 8997,
  "68130": 3323,
  "68130851479552": 3515,
  "6818": 8306,
  "682": 3657,
  "683": 9154,
  "684": 2467,
  "6840": 3856,
  "684032": 7428,
  "68416": 8568,
  "685": 2826,
  "6857": 7276,
  "686": 3989,
  "687": 3782,
  "688": 2774,
  "6880": 7709,
  "688100864": 8955,
  "689": 1891,
  "6898091008": 3143,
  "69": 484,
  "690": 1918,
  "691": 3927,
  "6912": 3742,
  "6913": 1888,
  "6913152": 2217,
  "691392": 6472,
  "69190": 5575,
  "692": 7897,
  "6920": 6713,
  "6924": 2924,
  "692411160": 3797,
  "692411160470118400": 3799,
  "692480": 7288,
  "6927": 3664,
  "6927508480": 4269,
  "693": 6918,
  "69325": 4932,
  "694": 3457,
  "6940": 5619,
  "6940183552": 6967,
  "6944": 6159,
  "6945": 6973,
  "695": 3899,
  "6952": 6994,
  "696": 2539,
  "6960": 5975,
  "69607": 5759,
  "69607331840": 5787,
  "697": 2232,
  "6970": 3905,
  "69760": 5770,
  "6977": 7546,
  "698": 2606,
  "69817": 5198,
  "6982784": 7028,
  "699": 2421,
  "7": 26,
  "70": 788,
  "700": 9298,
  "70198": 4087,
  "702": 5841,
  "70225920": 9762,
  "703": 9717,
  "704": 3932,
  "7040": 3670,
  "705": 4316,
  "7056": 4247,
  "706": 5327,
  "707": 4099,
  "708": 3336,
  "7088": 4432,
  "709": 4334,
  "71": 1376,
  "7119716": 8998,
  "71197162898537": 9003,
  "711971628985376768": 9004,
  "712": 1678,
  "7128583": 2098,
  "712858313604603905": 2100,
  "713": 9716,
  "714": 5305,
  "715": 1177,
  "7157": 1820,
  "7157132": 1835,
  "7159686": 1843,
  "716": 6856,
  "717": 5652,
  "718": 8511,
  "72": 1087,
  "720": 1132,
  "725": 4739,
  "727": 8115,
  "728": 6653,
  "73": 1067,
  "730": 5807,
  "735": 3904,
  "7352649": 5173,
  "735264926642655233": 5175,
  "736": 8814,
  "737": 8854,
  "739": 6092,
  "74": 1027,
  "740": 6135,
  "7429": 9522,
  "743": 2898,
  "744": 1411,
  "74431": 2306,
  "745": 8615,
  "7467084": 5152,
  "747": 5088,
  "749": 8841,
  "75": 837,
  "750": 1729,
  "751": 6814,
  "7518": 9521,
  "752": 3349,
  "753": 5631,
  "7539": 5291,
  "754": 6858,
  "7549": 6732,
  "754910732288": 7556,
  "755": 6311,
  "756": 3233,
  "757": 6317,
  "758": 3674,
  "7584": 5017,
  "75840": 7383,
  "758912": 7498,
  "759": 9196,
  "76": 946,
  "760": 3496,
  "7607539": 5910,
  "761": 5341,
  "763": 7286,
  "764": 9496,
  "765": 8977,
  "766": 7951,
  "767": 4002,
  "768": 5396,
  "769": 8724,
  "77": 611,
  "770": 2973,
  "77088": 9569,
  "771": 9890,
  "7712": 2230,
  "7717": 1813,
  "772": 9232,
  "7720": 5669,
  "77207040": 6329,
  "773": 8397,
  "774": 4819,
  "775": 3562,
  "7756": 7264,
  "776": 2465,
  "7760": 7194,
  "7761991680": 7632,
  "777": 3151,
  "778": 5169,
  "779": 3640,
  "78": 1063,
  "780": 3120,
  "780460": 7552,
  "780460754910732288": 7557,
  "7818": 7299,
  "7822": 8405,
  "783": 9540,
  "784": 8572,
  "785": 8608,
  "7865": 6681,
  "7869": 9483,
  "787": 2166,
  "788": 4630,
  "7882": 8327,
  "789": 1342,
  "7891089": 1541,
  "789108912465203204": 1543,
  "79": 775,
  "790": 3606,
  "7904": 5234,
  "791616": 8333,
  "792": 2935,
  "792128": 7022,
  "793": 4695,
  "794": 4407,
  "7949": 5325,
  "795": 4046,
  "7952": 8078,
  "796": 4350,
  "797": 4816,
  "798": 5568,
  "799": 9475,
  "8": 27,
  "80": 426,
  "800": 2185,
  "800439": 8295,
  "801": 6002,
  "8016": 9375,
  "802": 4858,
  "8027": 3430,
  "803": 5468,
  "8035": 4763,
  "8039": 7222,
  "804": 4454,
  "8048": 5808,
  "8048258": 8357,
  "80491": 1100,
  "805": 3358,
  "8056": 7348,
  "806": 4653,
  "8065": 7601,
  "807": 3259,
  "808": 1970,
  "8080": 5713,
  "808256": 5203,
  "809": 1569,
  "8090": 3977,
  "8090496": 4457,
  "80907": 5936,
  "80907597949": 5961,
  "809075979494821889": 5962,
  "8091008": 3141,
  "80940": 6842,
  "80940800": 7389,
  "809856": 5569,
  "81": 999,
  "810": 7157,
  "8112": 9238,
  "814": 5093,
  "815": 3298,
  "817": 5966,
  "818": 2308,
  "818824": 3721,
  "8188240410920": 8130,
  "818824041092055040": 8133,
  "8188244446": 4941,
  "818824444630233089": 4944,
  "819": 5994,
  "82": 814,
  "821": 7581,
  "823": 7836,
  "8235285": 5786,
  "823528569607331840": 5788,
  "824": 1681,
  "8248": 4579,
  "825": 9116,
  "826": 6133,
  "827": 9097,
  "828": 4512,
  "829": 6324,
  "83": 453,
  "830": 9755,
  "831": 6817,
  "8310": 7826,
  "8315": 4445,
  "832": 1297,
  "8320": 8195,
  "832000": 1641,
  "83233": 8735,
  "833": 4651,
  "834": 2035,
  "83425": 4048,
  "8347": 9863,
  "834944": 3886,
  "835": 1626,
  "8356": 7929,
  "836": 3661,
  "8360": 9771,
  "83616": 9864,
  "8368": 9702,
  "8369": 9060,
  "837": 2516,
  "83744": 3327,
  "837441": 3416,
  "8376": 9714,
  "837691392": 6606,
  "8377": 8824,
  "83777": 9094,
  "838": 3040,
  "83813888": 9856,
  "8384": 4204,
  "839": 2892,
  "8397": 6721,
  "84": 584,
  "840": 2030,
  "8407": 6737,
  "841": 2526,
  "842": 4998,
  "843": 4925,
  "844": 3673,
  "845": 3353,
  "846": 4415,
  "846163": 3836,
  "847": 3084,
  "848": 3174,
  "848384": 7184,
  "8485": 6440,
  "849": 4618,
  "85": 582,
  "850": 1885,
  "8508": 2085,
  "85084": 4162,
  "851": 8126,
  "85120": 8881,
  "851479552": 3514,
  "852": 7537,
  "853": 8867,
  "8537": 6543,
  "854": 3743,
  "8545": 9564,
  "85484": 2994,
  "854848": 3689,
  "855": 3166,
  "8550": 7707,
  "8557": 3616,
  "8557568": 5073,
  "8557953": 8503,
  "856": 2167,
  "856192": 6687,
  "857": 2600,
  "8570": 9063,
  "8577": 7320,
  "858": 2524,
  "8583": 1880,
  "859": 2233,
  "85907": 5202,
  "859136": 9429,
  "86": 839,
  "860": 7738,
  "861": 7337,
  "862": 6063,
  "8629": 3853,
  "863": 2783,
  "8639": 8366,
  "864": 8179,
  "865": 4607,
  "8654464": 8871,
  "8665": 7515,
  "866545664": 8963,
  "867": 9769,
  "868": 6929,
  "869": 9245,
  "87": 578,
  "870": 3018,
  "8704": 3964,
  "871": 7959,
  "8718": 9656,
  "872": 1859,
  "873": 4221,
  "874": 3783,
  "875": 3064,
  "875135": 6668,
  "876": 4741,
  "877": 3387,
  "8770": 4636,
  "87707467084": 5154,
  "877074670842990593": 5156,
  "877267": 8632,
  "877267279523741696": 8641,
  "8777": 6836,
  "878": 4384,
  "878248": 4681,
  "8784": 5969,
  "879": 3507,
  "87907": 3820,
  "879467": 6051,
  "879467583396749312": 6054,
  "8799": 4483,
  "88": 797,
  "880": 2180,
  "8808027": 3600,
  "882": 8018,
  "883": 7018,
  "8833": 8696,
  "8834": 3846,
  "8834175400634": 3919,
  "883417540063449088": 3920,
  "884": 6112,
  "885": 7569,
  "88583": 9485,
  "8858311344": 9765,
  "885831134470225920": 9767,
  "886": 3115,
  "887": 2268,
  "88704": 3936,
  "8878654464": 9079,
  "888": 2287,
  "889": 7344,
  "89": 590,
  "890": 3344,
  "8907": 9436,
  "891": 7845,
  "8912": 5002,
  "892": 9137,
  "893": 7518,
  "8930": 8486,
  "894": 4613,
  "8947": 8347,
  "895": 3947,
  "896": 2375,
  "8960": 8152,
  "897": 2057,
  "898": 4465,
  "899": 2997,
  "899105792": 8455,
  "8999": 8959,
  "9": 28,
  "90": 801,
  "900": 4341,
  "903": 7471,
  "9032": 9964,
  "904": 4728,
  "9040": 7485,
  "905": 4826,
  "906": 7167,
  "9069": 9301,
  "907": 2056,
  "9070": 8090,
  "907062273": 9512,
  "908": 8847,
  "909": 2829,
  "91": 1383,
  "912": 1783,
  "9120": 5500,
  "91207607539": 5912,
  "912076075391377409": 5913,
  "913": 4522,
  "914": 8818,
  "915": 8140,
  "916": 7801,
  "918": 7283,
  "919": 8221,
  "9199": 3123,
  "919910836898091008": 3146,
  "92": 1003,
  "920": 7590,
  "9216": 8429,
  "92320": 8848,
  "924": 6974,
  "925": 6937,
  "926": 9053,
  "9266": 5288,
  "927": 6141,
  "928": 6740,
  "929": 4945,
  "93": 918,
  "930": 7757,
  "9315": 6698,
  "932864": 9258,
  "9328641": 9898,
  "933": 4352,
  "933147136": 9341,
  "935": 8423,
  "937": 8446,
  "939": 8150,
  "94": 951,
  "944": 9981,
  "945": 7250,
  "9467": 4778,
  "947": 7037,
  "948": 9594,
  "949": 2249,
  "94931": 5960,
  "95": 835,
  "950": 3110,
  "9503076": 8164,
  "950307615749345282": 8172,
  "95042355887": 8355,
  "950423558878048258": 8358,
  "952": 2065,
  "953": 4978,
  "954": 7154,
  "9540": 6706,
  "955": 2319,
  "9551": 8197,
  "956": 6383,
  "9568": 9917,
  "957": 6072,
  "958": 8334,
  "95849": 9038,
  "95849472": 9264,
  "9585": 9106,
  "959": 8791,
  "96": 921,
  "960": 3172,
  "9616": 7112,
  "962": 8280,
  "964": 7797,
  "965": 7000,
  "966": 7574,
  "9666": 3440,
  "966668130851479552": 3516,
  "967": 5799,
  "968": 1447,
  "968506": 6492,
  "968506257119293441": 6503,
  "9686": 1831,
  "969": 6409,
  "97": 829,
  "970": 6161,
  "973": 5253,
  "9739": 3810,
  "97394427": 4293,
  "973944274848018432": 4295,
  "974": 4892,
  "975": 5150,
  "976": 3663,
  "977": 5404,
  "978": 5535,
  "979": 7396,
  "98": 1072,
  "980": 3605,
  "981": 3228,
  "9819": 9225,
  "983": 5272,
  "984": 5856,
  "985": 5882,
  "986": 8697,
  "987": 5630,
  "988": 4250,
  "98818": 7343,
  "9887": 6352,
  "989": 5599,
  "99": 603,
  "990": 3885,
  "99039": 2836,
  "992": 1578,
  "9920": 8918,
  "993": 9607,
  "994": 3630,
  "99433": 9115,
  "995": 4324,
  "996": 4655,
  "9960": 7975,
  "9967": 7474,
  "99677952": 9782,
  "997": 3800,
  "998": 3549,
  "99820": 9692,
  "999": 2968,
  "9997": 6924,
  "9999": 1996,
  "99999999": 9944,
  ":": 29,
  "://": 6108,
  ":\\": 2413,
  ":\\/\\/": 305,
  ";": 30,
  ";\\": 6047,
  "<": 31,
  "<|endoftext|>": 0,
  "<|json|>": 2,
  "<|pad|>": 1,
  "<|schema|>": 3,
  "=": 32,
  "=\\\"": 542,
  ">": 33,
  "?": 34,
  "?!": 6726,
  "?\",\"": 5346,
  "??": 3716,
  "?\\": 5840,
  "@": 35,
  "A": 36,
  "AA": 558,
  "AAA": 1427,
  "AAAA": 2870,
  "AAAAAAAA": 5167,
  "AAAAAAAAAAAAAAAA": 9971,
  "AAE": 3192,
  "AAK": 7622,
  "AAM": 1827,
  "AAMzra": 2216,
  "AAO": 6757,
  "AAOabz": 9955,
  "AAP": 2847,
  "AAPTw": 5052,
  "AAPuUc": 7156,
  "AAV": 8440,
  "AAd": 4625,
  "AAe": 5714,
  "AAj": 6335,
  "AApa": 2871,
  "AAs": 7710,
  "AAvZq": 5246,
  "AAxp": 6261,
  "AAxpKN": 6265,
  "AB": 1365,
  "ABB": 2949,
  "AC": 2657,
  "ACK": 5861,
  "ACY": 9253,
  "AD": 4912,
  "AE": 977,
  "AET": 2673,
  "AF": 6158,
  "AG": 1400,
  "AGD": 1505,
  "AH": 9517,
  "AI": 1312,
  "AIN": 9032,
  "AIX": 8929,
  "AIzr": 3483,
  "AIzrtw": 3487,
  "AJ": 4641,
  "AJDF": 7435,
  "AK": 6534,
  "AL": 2128,
  "ALL": 7061,
  "AM": 1889,
  "AME": 3948,
  "AMah": 5604,
  "AN": 1865,
  "ANT": 7215,
  "ANf": 8337,
  "AP": 5293,
  "APt": 9331,
  "AQ": 9370,
  "AR": 2018,
  "ARJTL": 9033,
  "ART": 3287,
  "AS": 4176,
  "AT": 2685,
  "AU": 2063,
  "AUo": 3968,
  "AUwAET": 9117,
  "AV": 8872,
  "AVE": 5950,
  "AW": 5383,
  "AX": 5484,
  "AY": 2980,
  "Aa": 8583,
  "Ab": 7978,
  "Absolutely": 7007,
  "Ac": 3802,
  "Ad": 4185,
  "Ae": 9486,
  "Af": 5104,
  "Ag": 8842,
  "Ai": 6128,
  "Ak": 8635,
  "Al": 2876,
  "Alberto": 9793,
  "Alerts": 7260,
  "Alex": 8015,
  "All": 7859,
  "Am": 3771,
  "Amazing": 5943,
  "Amount": 6616,
  "An": 2791,
  "And": 4308,
  "Andrew": 8055,
  "AndrewAlerts": 9806,
  "Animal": 8232,
  "Anime": 9670,
  "April": 1697,
  "Aq": 6038,
  "Ar": 2943,
  "As": 1548,
  "AsH": 1957,
  "AsHVWcr": 1960,
  "At": 3916,
  "Au": 9371,
  "August": 1854,
  "Austin": 9046,
  "Av": 6890,
  "Aw": 6010,
  "Awe": 4323,
  "Awekq": 4332,
  "Ay": 9076,
  "Az": 4918,
  "AzDC": 8891,
  "B": 37,
  "BA": 4993,
  "BB": 5883,
  "BC": 5757,
  "BD": 3685,
  "BDD": 8462,
  "BE": 6700,
  "BF": 2644,
  "BFUwAET": 3734,
  "BG": 7526,
  "BI": 7679,
  "BIS": 8294,
  "BK": 3612,
  "BL": 9267,
  "BM": 3089,
  "BQ": 8380,
  "BR": 4559,
  "BS": 3407,
  "BSO": 7472,
  "BSOQUUw": 7636,
  "BT": 6912,
  "BU": 4435,
  "BUYAA": 5279,
  "BV": 8855,
  "BX": 6901,
  "BY": 6982,
  "Ball": 3524,
  "BallPlus": 4199,
  "Bar": 5338,
  "BarcadeVG": 7370,
  "Bc": 6058,
  "Be": 1636,
  "Beautiful": 2011,
  "Ben": 7212,
  "Ber": 7979,
  "Bg": 2384,
  "BgB": 4150,
  "Bh": 6736,
  "Bi": 9454,
  "Bienven": 4519,
  "Bienvenido": 6876,
  "Bienvenue": 7715,
  "Bj": 4272,
  "Bk": 5289,
  "Black": 5871,
  "Blo": 8461,
  "Blue": 5397,
  "Bo": 2790,
  "Boots": 7670,
  "Bq": 8940,
  "Br": 8028,
  "Bros": 928,
  "Bu": 6589,
  "By": 8047,
  "C": 38,
  "CA": 7138,
  "CAY": 8531,
  "CB": 5069,
  "CC": 1345,
  "CCS": 2200,
  "CD": 7847,
  "CE": 1547,
  "CEB": 3373,
  "CEO": 3254,
  "CEOS": 5732,
  "CF": 2555,
  "CH": 2276,
  "CJ": 9246,
  "CN": 9289,
  "CR": 7624,
  "CS": 5789,
  "CV": 2806,
  "CVHP": 4810,
  "CY": 7099,
  "Ca": 3297,
  "Cafe": 4366,
  "Cam": 7703,
  "Cambridge": 9278,
  "Can": 3862,
  "CanNv": 6676,
  "Canada": 8574,
  "Car": 6456,
  "Cat": 8767,
  "Cb": 8410,
  "Ce": 8048,
  "Cfk": 9699,
  "Cfkavh": 9899,
  "CfkavhfxOL": 9901,
  "Ch": 1673,
  "Chaos": 7541,
  "Chicago": 7368,
  "Chronicles": 4382,
  "Ck": 7764,
  "Cl": 5765,
  "Clas": 4813,
  "Classic": 9061,
  "Classy": 6950,
  "Cm": 5877,
  "Cmqt": 8912,
  "Co": 2188,
  "Col": 5151,
  "Colonel": 9016,
  "Com": 1483,
  "Comfortable": 5128,
  "Comp": 9113,
  "Con": 6241,
  "Cr": 7405,
  "Cs": 6205,
  "Cube": 6602,
  "Cute": 3887,
  "Cw": 7946,
  "Cy": 6833,
  "D": 39,
  "DA": 1164,
  "DAY": 8659,
  "DB": 1954,
  "DBB": 8606,
  "DBZ": 2863,
  "DBZbabe": 2910,
  "DC": 3816,
  "DD": 2123,
  "DDEEF": 970,
  "DE": 3021,
  "DEE": 790,
  "DEED": 985,
  "DEEF": 969,
  "DF": 2337,
  "DFEC": 4956,
  "DG": 8732,
  "DI": 6064,
  "DJ": 4753,
  "DJuegos": 8092,
  "DJuegosMX": 8837,
  "DO": 8442,
  "DQ": 4299,
  "DQRS": 7760,
  "DR": 3237,
  "DS": 4203,
  "DT": 4730,
  "DTB": 8662,
  "DTBjuN": 8904,
  "DV": 6908,
  "DW": 6524,
  "DX": 4393,
  "DXt": 9364,
  "DXtPi": 9374,
  "Da": 2768,
  "Daemon": 6378,
  "DaemonXMachina": 7776,
  "Dan": 6689,
  "Dd": 5228,
  "De": 1156,
  "December": 1684,
  "Deck": 2119,
  "Df": 505,
  "Dfd": 1395,
  "Dfe": 1405,
  "DfeY": 2127,
  "DfeYPxsU": 2873,
  "DfeYgST": 9067,
  "DfeYgSTVQAALj": 9069,
  "DfeYgSTVQAALjJN": 9070,
  "DfeYqex": 9953,
  "DfeYqexU": 9956,
  "DfeZ": 2940,
  "DfeZDuv": 4370,
  "DfeZDuvUYAAJ": 4371,
  "Dfea": 6448,
  "Dfeb": 7694,
  "DfeclM": 7155,
  "Dfg": 562,
  "DfgH": 5995,
  "DfgHmd": 9177,
  "DfgHmdVWkAERamO": 9182,
  "DfgK": 7908,
  "DfgL": 3335,
  "DfgM": 1608,
  "DfgMsg": 5311,
  "DfgMsgBUYAA": 5313,
  "DfgN": 1448,
  "DfgNpB": 4887,
  "DfgNq": 9277,
  "DfgNz": 5216,
  "DfgO": 1666,
  "DfgOJ": 5657,
  "DfgOTYx": 8465,
  "DfgOTYxUcAAzn": 8469,
  "DfgOTYxUcAAznjf": 8471,
  "DfgOX": 7271,
  "DfgOXgTVMAA": 7616,
  "DfgOa": 9723,
  "DfgOfR": 6476,
  "DfgP": 2392,
  "DfgQ": 997,
  "DfgQB": 3459,
  "DfgQBBFUwAET": 3735,
  "DfgQBBFUwAETacm": 3737,
  "DfgQNy": 9123,
  "DfgQNyAUwAET": 9128,
  "DfgQe": 7783,
  "DfgQeo": 2528,
  "DfgQeoWV": 2530,
  "DfgQgY": 6511,
  "DfgQgYfVQAU": 6584,
  "DfgQgYfVQAUqTN": 6586,
  "DfgQk": 9827,
  "DfgQu": 6558,
  "DfgQxtF": 2709,
  "DfgQxtFUYAAVi": 2713,
  "DfgQy": 2581,
  "DfgQyYCUwAAw": 4110,
  "DfgQyYCUwAAwZpb": 4119,
  "DfgQz": 4005,
  "DfgQzktUwAUo": 4114,
  "DfgR": 1836,
  "DfgRD": 9152,
  "DfgS": 1775,
  "DfgSBM": 5075,
  "DfgSBMdWAAARWd": 5080,
  "DfgSk": 7291,
  "DfgSklaV": 7516,
  "DfgT": 1648,
  "DfgTHO": 9260,
  "DfgTR": 9865,
  "DfgTV": 9398,
  "DfgTX": 3882,
  "DfgTm": 9271,
  "DfgTmIOVQAA": 9494,
  "DfgU": 1896,
  "DfgUY": 5086,
  "DfgUYiQV": 5249,
  "DfgV": 1069,
  "DfgVCC": 3482,
  "DfgVCCgW": 3486,
  "DfgVGrr": 5835,
  "DfgVGrrWsAIi": 5837,
  "DfgVL": 7651,
  "DfgVLMyWkAI": 7871,
  "DfgVLMyWkAIxCTO": 7874,
  "DfgVRs": 4456,
  "DfgVRsLXUAAmpIG": 4460,
  "DfgVT": 7828,
  "DfgVc": 6185,
  "DfgVcddWAA": 6677,
  "DfgVcddWAAUYjLS": 6679,
  "DfgVm": 8300,
  "DfgVmHMXUAALl": 8693,
  "DfgVmHMXUAALlIZ": 8695,
  "DfgVyy": 6263,
  "DfgVyyCV": 6266,
  "DfgW": 1705,
  "DfgWI": 6211,
  "DfgWvhd": 8858,
  "DfgWvhdXkAEYX": 8863,
  "DfgWvhdXkAEYXnU": 8864,
  "DfgX": 3091,
  "DfgY": 7555,
  "Di": 4389,
  "DiAW": 9847,
  "Dis": 4831,
  "Discussing": 6946,
  "DiscussingFilm": 6947,
  "Dl": 4530,
  "Do": 4133,
  "Dq": 7318,
  "Dr": 5555,
  "Dragon": 6445,
  "Dress": 4241,
  "Ds": 7429,
  "Du": 6805,
  "Duv": 4365,
  "Dx": 7653,
  "Dy": 7364,
  "E": 40,
  "EA": 1695,
  "EAB": 4869,
  "EAD": 3970,
  "EADQUART": 5449,
  "EADQUARTERS": 5450,
  "EB": 2869,
  "EBEB": 8160,
  "EC": 1963,
  "ECK": 7326,
  "ECT": 6024,
  "ED": 2409,
  "EE": 688,
  "EEEE": 1926,
  "EEEEEE": 3028,
  "EF": 1230,
  "EFEF": 1615,
  "EFEFEF": 2432,
  "EG": 8483,
  "EJ": 5485,
  "EK": 5352,
  "EL": 2267,
  "ELJp": 6052,
  "ELJptiW": 6055,
  "EM": 7469,
  "EN": 1709,
  "END": 3955,
  "ENERAL": 6258,
  "ENT": 4955,
  "EO": 5343,
  "EOx": 4039,
  "EOxw": 4053,
  "EQ": 6119,
  "ER": 1202,
  "ERAL": 6107,
  "ERE": 5566,
  "ERF": 6948,
  "ERFECT": 7315,
  "ERS": 3470,
  "ERY": 6798,
  "ES": 2037,
  "ESS": 6452,
  "EST": 9799,
  "ET": 4246,
  "EU": 4729,
  "EV": 5879,
  "EVERY": 9679,
  "EW": 3128,
  "EX": 9058,
  "EY": 2911,
  "EZZf": 3869,
  "Eb": 9455,
  "Echo": 7983,
  "Ed": 4336,
  "Edb": 6775,
  "Eduard": 8489,
  "Ei": 6743,
  "Eire": 8266,
  "Ek": 9294,
  "El": 4839,
  "Elegant": 9447,
  "Em": 5215,
  "Emblem": 2597,
  "En": 5316,
  "Eng": 9908,
  "Eo": 4310,
  "Eofi": 6138,
  "Ep": 3391,
  "EpT": 5161,
  "Er": 7972,
  "Es": 3738,
  "Et": 5353,
  "Eu": 7520,
  "Europe": 9419,
  "Ev": 8643,
  "Every": 2273,
  "Everyone": 2567,
  "Ex": 3290,
  "Ezi": 9878,
  "F": 41,
  "FA": 1479,
  "FAB": 5662,
  "FAND": 9423,
  "FANDOM": 9424,
  "FC": 2813,
  "FDBB": 9099,
  "FE": 9756,
  "FF": 560,
  "FFCC": 7422,
  "FFF": 8698,
  "FFFF": 831,
  "FFFFFF": 1042,
  "FG": 5991,
  "FHu": 9532,
  "FI": 2798,
  "FO": 5416,
  "FOZth": 9707,
  "FP": 5056,
  "FR": 7151,
  "FS": 8256,
  "FV": 8478,
  "FW": 6088,
  "FY": 9660,
  "FZ": 1534,
  "FZzo": 4809,
  "Fa": 5782,
  "Fan": 6374,
  "Fb": 4593,
  "Fe": 7192,
  "Feb": 1779,
  "February": 2115,
  "Felt": 8782,
  "Fh": 3764,
  "FhQ": 7775,
  "FhRHK": 8101,
  "FhRHKA": 8106,
  "Fi": 5467,
  "Fid": 5221,
  "FidZHcXM": 5250,
  "Film": 6256,
  "Final": 6808,
  "Fire": 2376,
  "FireEmblem": 2608,
  "Fit": 2521,
  "Fits": 6455,
  "Fl": 4971,
  "Flattering": 9201,
  "Fm": 7257,
  "Fo": 6796,
  "For": 5816,
  "Fortnite": 2219,
  "Fpm": 7570,
  "FpmBSOQUUw": 7637,
  "Frame": 4883,
  "Frameshift": 4896,
  "FrameshiftShark": 4905,
  "Fran": 7914,
  "France": 2170,
  "Fri": 1451,
  "Fs": 9497,
  "Full": 8865,
  "Fun": 3807,
  "Fuw": 9202,
  "Fuwjvz": 9273,
  "Fx": 8341,
  "G": 42,
  "GAME": 5534,
  "GB": 8683,
  "GC": 7798,
  "GE": 4635,
  "GG": 3795,
  "GK": 8609,
  "GO": 7455,
  "GP": 4696,
  "GR": 5240,
  "GS": 4184,
  "GSUniverse": 6017,
  "GU": 9680,
  "GV": 3703,
  "GW": 7650,
  "GX": 2005,
  "GY": 9942,
  "Ga": 6897,
  "Game": 1218,
  "GameS": 1414,
  "GameSpot": 1664,
  "GameSpotE": 2382,
  "GameStop": 3204,
  "GameStopE": 8623,
  "Gamer": 3276,
  "Games": 4608,
  "Gaming": 3294,
  "GbT": 9471,
  "Gbau": 1806,
  "Ge": 8589,
  "Geek": 7848,
  "General": 2160,
  "Get": 4335,
  "Gf": 3425,
  "GfVhs": 6321,
  "Gfh": 9938,
  "Gh": 6800,
  "GjM": 9437,
  "Gjo": 3744,
  "GjoHUgS": 3753,
  "Gl": 9725,
  "Gm": 5001,
  "Go": 2765,
  "Gorgeous": 3517,
  "Got": 7261,
  "Gr": 3272,
  "Gre": 8227,
  "Great": 1736,
  "Grr": 5620,
  "Gs": 8402,
  "Gsy": 5432,
  "GsyQ": 5442,
  "Gu": 5145,
  "Gust": 4667,
  "Gustarfox": 5682,
  "Gz": 9578,
  "H": 43,
  "HB": 5930,
  "HC": 5083,
  "HD": 7213,
  "HE": 8431,
  "HH": 1991,
  "HHHH": 4104,
  "HHHHHHHH": 7623,
  "HHcC": 8370,
  "HHcCcGPge": 8377,
  "HI": 9090,
  "HK": 5008,
  "HL": 8821,
  "HM": 2821,
  "HMXUAALl": 8689,
  "HO": 4875,
  "HP": 4238,
  "HQY": 9130,
  "HR": 6515,
  "HS": 7169,
  "HT": 4959,
  "HTR": 6422,
  "HTRAVE": 8167,
  "HU": 3255,
  "HUgS": 3752,
  "HV": 6338,
  "HW": 6290,
  "HZ": 6410,
  "Ha": 7432,
  "Haz": 6916,
  "HazUjZ": 7044,
  "Hb": 7808,
  "Hd": 8248,
  "He": 2827,
  "Her": 8240,
  "Hgi": 6528,
  "Hi": 6789,
  "Hk": 6177,
  "HnM": 5584,
  "Ho": 3817,
  "Hollow": 6015,
  "HollowKnight": 7258,
  "Hp": 9425,
  "Ht": 5474,
  "HtUs": 9159,
  "HtUsI": 9160,
  "Hu": 5472,
  "Hx": 8121,
  "Hxp": 5132,
  "Hy": 3268,
  "Hyrule": 9857,
  "Hz": 9726,
  "I": 44,
  "IA": 8414,
  "IAL": 6034,
  "IB": 6173,
  "IC": 3244,
  "ID": 3261,
  "IDLEY": 9243,
  "IE": 8284,
  "IF": 2950,
  "IFM": 4917,
  "IFMhl": 4942,
  "IG": 2074,
  "IGHT": 7714,
  "IGN": 5784,
  "II": 2938,
  "IK": 4938,
  "IL": 2543,
  "ILL": 6560,
  "IM": 4296,
  "IMA": 3790,
  "IMAL": 6570,
  "IMATE": 5842,
  "IN": 1425,
  "ING": 2243,
  "INT": 3463,
  "INTEND": 4354,
  "INTENDO": 6449,
  "IO": 3215,
  "ION": 6218,
  "IOVQAA": 9492,
  "IP": 3361,
  "IR": 3188,
  "IS": 2075,
  "ISS": 8421,
  "IST": 8474,
  "IT": 2263,
  "ITCH": 7901,
  "ITD": 9302,
  "IU": 8684,
  "IV": 3557,
  "IVqJm": 8787,
  "IX": 6733,
  "IY": 7519,
  "IZ": 3757,
  "Ia": 8267,
  "Ib": 8056,
  "Ic": 8556,
  "Icar": 9789,
  "IcarlyHD": 9833,
  "IcarlyHDRemake": 9834,
  "Ie": 7209,
  "If": 5542,
  "Iit": 8888,
  "IitOiQLiP": 8906,
  "Il": 6018,
  "Ill": 8610,
  "Im": 4962,
  "In": 1452,
  "InGbT": 9507,
  "Ind": 8887,
  "Infinity": 5384,
  "Inkling": 9854,
  "Ins": 9426,
  "Instagram": 4320,
  "Internet": 5762,
  "Ip": 7750,
  "Iq": 5294,
  "Ir": 6646,
  "Is": 6106,
  "It": 1780,
  "Iv": 4906,
  "IvLC": 8131,
  "Ix": 8359,
  "J": 45,
  "JACY": 9560,
  "JB": 9161,
  "JC": 7118,
  "JG": 6670,
  "JI": 4684,
  "JK": 8484,
  "JN": 6275,
  "JP": 6822,
  "JRJ": 5709,
  "JRJCEOS": 5733,
  "JRJCEOSqp": 5734,
  "JT": 4475,
  "JTL": 9001,
  "JU": 4590,
  "JURG": 7437,
  "JV": 1810,
  "JVCom": 1953,
  "JW": 9105,
  "JZ": 7198,
  "JZmhXb": 9818,
  "Ja": 6550,
  "January": 1952,
  "Jb": 8540,
  "Jde": 6564,
  "JdeNLaaist": 6585,
  "Je": 4797,
  "JggJ": 6493,
  "Jh": 5398,
  "Ji": 2726,
  "Jih": 3792,
  "Jj": 8815,
  "Jm": 3505,
  "Jo": 4256,
  "Jon": 4828,
  "Jonath": 5742,
  "Jonathon": 5951,
  "Jp": 3280,
  "Jr": 2519,
  "JrbbJggJ": 6500,
  "Ju": 5649,
  "July": 1929,
  "June": 1620,
  "Just": 4531,
  "Justin": 9479,
  "Jy": 6963,
  "K": 46,
  "KC": 7226,
  "KE": 3238,
  "KING": 7527,
  "KL": 5038,
  "KN": 4850,
  "KS": 8024,
  "KT": 7292,
  "KV": 7057,
  "KY": 7761,
  "KZ": 9208,
  "Kab": 9972,
  "Kaz": 4027,
  "KazH": 4120,
  "KazHiraiCEO": 4126,
  "Kb": 3711,
  "KbuEm": 8371,
  "Kd": 3093,
  "KdFC": 9353,
  "Ke": 9314,
  "Kg": 5062,
  "Ki": 5900,
  "Kizuki": 7074,
  "Kk": 6101,
  "Kn": 8772,
  "Knight": 6723,
  "Ko": 7486,
  "Kr": 7235,
  "Kw": 2190,
  "Kx": 8994,
  "Ky": 8627,
  "Kz": 8775,
  "L": 47,
  "LC": 2862,
  "LD": 2757,
  "LDi": 8059,
  "LDpU": 3485,
  "LE": 3665,
  "LER": 5891,
  "LEY": 7875,
  "LK": 2568,
  "LL": 5266,
  "LM": 5754,
  "LOVE": 5264,
  "LOVED": 8269,
  "LP": 7451,
  "LS": 5550,
  "LT": 4360,
  "LTIMATE": 5848,
  "LU": 7236,
  "LV": 3756,
  "LW": 7688,
  "LXUAA": 4385,
  "LXUAAmpIG": 4458,
  "LY": 3450,
  "La": 4461,
  "Laser": 9395,
  "Lc": 9973,
  "Ld": 9501,
  "Le": 2577,
  "Lets": 4057,
  "LetsGo": 4152,
  "Level": 9473,
  "Lewis": 5340,
  "Lh": 3286,
  "LhD": 4362,
  "Li": 3304,
  "LiP": 8903,
  "Lj": 4745,
  "Lk": 8981,
  "Ll": 4540,
  "Lo": 1653,
  "London": 6559,
  "Los": 3319,
  "Love": 3211,
  "Loved": 2227,
  "LrF": 9665,
  "Lu": 2889,
  "LwC": 9487,
  "Lx": 5931,
  "Ly": 8393,
  "M": 48,
  "MA": 1725,
  "MAN": 9558,
  "MASH": 3325,
  "MAZ": 8245,
  "MAZING": 8555,
  "MB": 6494,
  "MC": 9948,
  "MD": 6568,
  "MENT": 6806,
  "MF": 7553,
  "MG": 8004,
  "MJ": 9456,
  "MM": 7140,
  "MP": 7985,
  "MR": 8633,
  "MT": 6096,
  "MW": 4835,
  "MX": 4265,
  "MY": 6318,
  "Ma": 3741,
  "Madrid": 9217,
  "Man": 4756,
  "Mar": 1524,
  "March": 1917,
  "Mario": 2930,
  "MarioParty": 3396,
  "Marvel": 6346,
  "Max": 8277,
  "May": 1568,
  "Mc": 6898,
  "Me": 1336,
  "Media": 1829,
  "Mer": 5087,
  "Meri": 6188,
  "MeriStation": 8111,
  "Mero": 6527,
  "MeroStation": 8654,
  "Mg": 8519,
  "Mi": 2237,
  "MiR": 2992,
  "MiRfg": 3145,
  "Mo": 4146,
  "Mon": 1440,
  "Morning": 6690,
  "MorningSSB": 7239,
  "Mr": 3190,
  "MrS": 9147,
  "MrVQAA": 6541,
  "Ms": 2860,
  "MsDBZbabe": 3301,
  "Mt": 5317,
  "Mv": 8447,
  "My": 2701,
  "MyWkAI": 7868,
  "N": 49,
  "NA": 4394,
  "NC": 9101,
  "ND": 3381,
  "NE": 8186,
  "NF": 4786,
  "NG": 7201,
  "NI": 5838,
  "NINTEND": 8819,
  "NINTENDOE": 9332,
  "NK": 8235,
  "NL": 4309,
  "NLaaist": 6583,
  "NN": 2875,
  "NO": 3535,
  "NR": 8215,
  "NS": 3626,
  "NSl": 8829,
  "NT": 4427,
  "NU": 7638,
  "NV": 9685,
  "NZ": 8616,
  "Name": 3466,
  "Ne": 4800,
  "Nerd": 6685,
  "New": 1265,
  "News": 1443,
  "Nf": 9666,
  "Ng": 8303,
  "Nh": 9968,
  "Ni": 8579,
  "Nice": 6344,
  "Nin": 1449,
  "NinSwitchNews": 1521,
  "Nintendeal": 2161,
  "Nintendo": 438,
  "NintendoA": 5611,
  "NintendoAmerica": 6001,
  "NintendoD": 1020,
  "NintendoDE": 4056,
  "NintendoDirect": 1041,
  "NintendoE": 546,
  "NintendoES": 2215,
  "NintendoEurope": 1111,
  "NintendoFrance": 2537,
  "NintendoS": 5854,
  "NintendoSwitch": 1039,
  "NintendoSwitchC": 4564,
  "NintendoUK": 2380,
  "NintendoVS": 3390,
  "NintendoVSUK": 3402,
  "Nj": 5369,
  "No": 2841,
  "Nobel": 7918,
  "Nobelpri": 7937,
  "Normal": 7625,
  "NormalBoots": 7698,
  "North": 9274,
  "Not": 5257,
  "November": 1617,
  "Now": 3053,
  "Nt": 8947,
  "Nv": 5768,
  "Ny": 5888,
  "O": 50,
  "OB": 5607,
  "OC": 3720,
  "OCTOPAT": 8080,
  "OCTOPATHTRAVE": 8170,
  "OCTOPATHTRAVELER": 8178,
  "OD": 4235,
  "OE": 2749,
  "OG": 6358,
  "OH": 4710,
  "OK": 6979,
  "OL": 2587,
  "OLXZ": 8679,
  "OLXZklhtAs": 8681,
  "OM": 2776,
  "ON": 1612,
  "ONE": 5458,
  "OO": 1561,
  "OOOO": 3017,
  "OOOOOOOO": 5670,
  "OP": 5750,
  "OR": 2052,
  "OS": 1971,
  "OT": 2462,
  "OTl": 4400,
  "OU": 2369,
  "OUS": 8058,
  "OV": 5740,
  "OVE": 2368,
  "OW": 3401,
  "OX": 5106,
  "OY": 7965,
  "Octo": 5927,
  "October": 1523,
  "Octoboy": 8488,
  "OctoboyYT": 9380,
  "Oe": 7462,
  "Of": 3865,
  "OfTy": 9650,
  "Official": 5034,
  "Oh": 2897,
  "OhCVHP": 4811,
  "OhCVHPFZzo": 4812,
  "Oi": 5454,
  "OiQ": 8774,
  "OiQLiP": 8905,
  "Oj": 9309,
  "Ok": 5967,
  "On": 5828,
  "One": 7109,
  "Oq": 7517,
  "Or": 7187,
  "Order": 9987,
  "Os": 9299,
  "Overcooked": 6827,
  "Ow": 9885,
  "Ox": 2879,
  "Oy": 1421,
  "OyO": 7508,
  "P": 51,
  "PART": 9642,
  "PARTMENT": 9794,
  "PBgB": 4206,
  "PBk": 7031,
  "PBkBj": 7046,
  "PC": 9611,
  "PE": 5112,
  "PG": 5196,
  "PH": 6770,
  "PL": 6609,
  "PM": 8263,
  "PN": 4028,
  "PNG": 9896,
  "PO": 6304,
  "PR": 6773,
  "PS": 4541,
  "PT": 5933,
  "PU": 6428,
  "PX": 4580,
  "PY": 7704,
  "PZ": 8415,
  "Pa": 7547,
  "Paris": 4795,
  "Party": 3169,
  "Pe": 5892,
  "Perfect": 2171,
  "Ph": 6136,
  "Pi": 4524,
  "Pl": 1956,
  "Play": 5761,
  "Plus": 3717,
  "Po": 1200,
  "Point": 2389,
  "Pok": 7102,
  "Poke": 2033,
  "PokeBallPlus": 4615,
  "Pokemon": 2779,
  "PokemonLetsGo": 4232,
  "Polygon": 2678,
  "Pow": 3251,
  "Powered": 3615,
  "Pq": 8119,
  "Pr": 4145,
  "Pretty": 6296,
  "Pri": 4577,
  "Pro": 4065,
  "Push": 5985,
  "Pw": 7961,
  "Px": 2026,
  "PxsU": 2872,
  "Py": 7345,
  "Pz": 1588,
  "PzktK": 6512,
  "PzktKPl": 6513,
  "Pzv": 1958,
  "PzvAsHVWcr": 1961,
  "Q": 52,
  "QD": 7504,
  "QE": 9778,
  "QJ": 7661,
  "QNSl": 8833,
  "QR": 6371,
  "QT": 6312,
  "QU": 2884,
  "QUART": 5354,
  "QUUw": 7633,
  "QV": 2271,
  "QVstR": 8098,
  "QW": 3812,
  "QY": 3863,
  "Qa": 7284,
  "Qh": 3915,
  "Qj": 9162,
  "Qk": 5667,
  "QkCmqt": 8920,
  "QkCmqtHB": 8921,
  "Qs": 8644,
  "Qu": 2088,
  "QuVO": 3733,
  "QuVOFeb": 3736,
  "Que": 4506,
  "Queen": 7353,
  "Qw": 7915,
  "Qx": 8830,
  "R": 53,
  "RA": 4217,
  "RAyojm": 6830,
  "RAyojmu": 6832,
  "RAyojmuTrV": 7240,
  "RD": 8982,
  "RE": 5478,
  "RHK": 7986,
  "RJ": 3495,
  "RJtI": 8100,
  "RJtIQ": 8105,
  "RK": 6305,
  "RM": 4329,
  "ROS": 3281,
  "ROSS": 6396,
  "RPx": 3847,
  "RS": 4098,
  "RT": 981,
  "RTR": 8576,
  "RU": 8348,
  "RVt": 6387,
  "RW": 3525,
  "RWd": 5072,
  "RY": 5000,
  "Ra": 9327,
  "Ram": 7802,
  "RamO": 9178,
  "Re": 2104,
  "Really": 7509,
  "Received": 9337,
  "Remake": 9760,
  "Rented": 6710,
  "Retro": 7923,
  "Rg": 9091,
  "Rh": 8807,
  "Ri": 6000,
  "Rich": 4340,
  "Richie": 5111,
  "Ridley": 4928,
  "Rise": 8648,
  "RiseOfTy": 9694,
  "Rj": 6257,
  "Ro": 2634,
  "Rp": 5785,
  "RpY": 9017,
  "Rs": 3522,
  "Ru": 5896,
  "RuWwS": 8373,
  "Runs": 7528,
  "Rw": 6046,
  "Ry": 5623,
  "S": 54,
  "SA": 1560,
  "SD": 9315,
  "SE": 5260,
  "SH": 2457,
  "SI": 8601,
  "SK": 6416,
  "SN": 2926,
  "SNrYFb": 5387,
  "SP": 4638,
  "SR": 9488,
  "SS": 3117,
  "SSB": 6522,
  "ST": 5284,
  "SU": 7341,
  "SV": 3506,
  "SVJ": 5410,
  "SW": 7799,
  "SY": 5339,
  "Sa": 8594,
  "San": 4546,
  "Sant": 9518,
  "Sat": 1606,
  "Sc": 8174,
  "Sd": 5873,
  "Se": 2594,
  "SeIP": 5269,
  "SeIPsuOEqi": 5271,
  "September": 1739,
  "Ser": 8001,
  "Sexy": 8937,
  "Sh": 1900,
  "Shadow": 8850,
  "Shark": 4808,
  "ShbA": 8369,
  "Show": 9582,
  "Smash": 911,
  "SmashBros": 931,
  "SmashBrosSwitch": 3467,
  "SmashBrosUltimate": 5361,
  "Sn": 4705,
  "So": 2502,
  "Some": 8241,
  "South": 9615,
  "Sp": 4378,
  "Splatoon": 2662,
  "SplatoonCafe": 4450,
  "Squ": 9776,
  "Sr": 4043,
  "Srta": 4759,
  "St": 1242,
  "Stan": 4157,
  "StanLewis": 5514,
  "Star": 8660,
  "Station": 4391,
  "Ste": 7197,
  "Storbritan": 9204,
  "Str": 4525,
  "String": 5424,
  "Stunning": 6778,
  "Sty": 6059,
  "Stylist": 6975,
  "Su": 3702,
  "SuJU": 6781,
  "Such": 8743,
  "Sun": 1593,
  "Super": 1319,
  "SuperMarioParty": 9158,
  "SuperRichie": 6100,
  "SuperSmashBros": 2151,
  "SuperSmashBrosUltimate": 3412,
  "Sw": 4261,
  "Switch": 897,
  "SwitchNews": 1520,
  "Sx": 6037,
  "Sy": 4437,
  "T": 55,
  "TC": 8879,
  "TE": 4552,
  "TER": 7726,
  "TF": 5229,
  "TH": 3214,
  "TJ": 5029,
  "TJGfVhs": 6322,
  "TJGfVhsTYN": 6323,
  "TKb": 8268,
  "TKbF": 8374,
  "TL": 9541,
  "TM": 6380,
  "TO": 3270,
  "TON": 8996,
  "TOP": 7211,
  "TOPAT": 7964,
  "TR": 1394,
  "TS": 3748,
  "TV": 2471,
  "TW": 6790,
  "TX": 8381,
  "TY": 3162,
  "TYN": 6316,
  "TYx": 8437,
  "Ta": 5133,
  "Te": 2428,
  "Team": 7090,
  "Tech": 7899,
  "Teiif": 7565,
  "TeiifpHs": 7568,
  "Th": 880,
  "That": 5372,
  "The": 960,
  "TheChaos": 7867,
  "TheChaosBlue": 7873,
  "TheE": 4806,
  "TheESA": 4934,
  "This": 1084,
  "Tho": 7088,
  "Thu": 1214,
  "Tj": 8045,
  "Tk": 9647,
  "To": 2818,
  "Todos": 8952,
  "Togami": 7076,
  "Tom": 8069,
  "Tr": 3266,
  "TrV": 7238,
  "True": 9706,
  "Ts": 5425,
  "TsQVstR": 8102,
  "TsQVstRLDi": 8107,
  "Tube": 3937,
  "Tue": 668,
  "Tw": 765,
  "Tweets": 7381,
  "Twitch": 6254,
  "Ty": 4609,
  "Tz": 7994,
  "U": 56,
  "UB": 4179,
  "UC": 2748,
  "UD": 9233,
  "UE": 1493,
  "UEAA": 1877,
  "UEAAI": 8302,
  "UEAAl": 6730,
  "UEAE": 5045,
  "UG": 9191,
  "UGV": 8783,
  "UH": 7324,
  "UK": 1710,
  "UL": 4781,
  "UP": 3767,
  "UPER": 5658,
  "UR": 1396,
  "URG": 6799,
  "URL": 1604,
  "US": 3815,
  "USA": 3119,
  "UT": 3574,
  "UU": 7433,
  "UW": 4985,
  "UWD": 8422,
  "UX": 3378,
  "UXiP": 7039,
  "UY": 1195,
  "UYAA": 1399,
  "UYAAJ": 4344,
  "UYAAVi": 2711,
  "UYAArx": 7602,
  "UYAE": 6163,
  "UYjL": 6665,
  "UYjLS": 6678,
  "UZ": 8797,
  "Uc": 3033,
  "UcAA": 1676,
  "UcAANN": 4108,
  "UcAAzn": 8466,
  "UcAE": 9453,
  "Uh": 8843,
  "UjZ": 7032,
  "Uk": 6355,
  "Ultimate": 2554,
  "Un": 2242,
  "Uni": 2734,
  "United": 2955,
  "Universe": 3221,
  "Up": 5549,
  "Us": 5488,
  "Utd": 8777,
  "UtdQNSl": 8838,
  "UtdQNSlVwA": 8840,
  "Uup": 7365,
  "Uw": 1255,
  "UwAA": 2093,
  "UwAAM": 4847,
  "UwAAMhak": 4889,
  "UwAAg": 9221,
  "UwAAw": 4091,
  "UwAE": 6103,
  "UwAET": 3236,
  "UwAUo": 4105,
  "Ux": 7072,
  "V": 57,
  "VA": 9727,
  "VAAA": 2083,
  "VAAAa": 3786,
  "VAAE": 8584,
  "VE": 1842,
  "VER": 3257,
  "VERY": 4434,
  "VF": 7947,
  "VG": 4575,
  "VJ": 6048,
  "VKw": 9316,
  "VKwKdFC": 9354,
  "VM": 1456,
  "VMAA": 1992,
  "VMAApD": 6477,
  "VMAApDmu": 6479,
  "VMAE": 3448,
  "VMAEY": 5415,
  "VMAEYSVJ": 5420,
  "VO": 3027,
  "VQ": 1741,
  "VQAA": 2692,
  "VQAALj": 9068,
  "VQAE": 7878,
  "VQAI": 9724,
  "VQAU": 6369,
  "VR": 6551,
  "VS": 2865,
  "VT": 5526,
  "VU": 7086,
  "VV": 9533,
  "VVMAA": 6624,
  "VW": 1696,
  "VWcr": 1959,
  "VWk": 8330,
  "VWkAE": 9009,
  "VWkAERamO": 9180,
  "VX": 5358,
  "Vb": 2894,
  "Vbx": 8086,
  "Very": 2788,
  "Vhs": 6280,
  "Vi": 2365,
  "Video": 5938,
  "Vl": 5157,
  "Vm": 4708,
  "VmrY": 6238,
  "Vo": 7765,
  "Vs": 7860,
  "Vsuq": 7033,
  "Vt": 4860,
  "Vvol": 6394,
  "VvolRVt": 6397,
  "Vw": 3096,
  "VwA": 8828,
  "Vy": 9085,
  "W": 58,
  "WAA": 4321,
  "WAAA": 2475,
  "WAAAg": 4489,
  "WAAE": 7747,
  "WC": 3339,
  "WE": 7407,
  "WLK": 3321,
  "WLKXj": 3332,
  "WNj": 9118,
  "WNjZpK": 9127,
  "WR": 9625,
  "WS": 5857,
  "WT": 8206,
  "WV": 2355,
  "Wa": 8585,
  "Wal": 7995,
  "Was": 9502,
  "Wb": 7876,
  "Wc": 4044,
  "WcpX": 5388,
  "WcpXSNrYFb": 5389,
  "We": 2589,
  "Wed": 1518,
  "Welcome": 2338,
  "Wh": 3559,
  "What": 6887,
  "When": 9846,
  "Will": 8005,
  "Wk": 1932,
  "WkAA": 3781,
  "WkAE": 3772,
  "WkAI": 5948,
  "Wo": 5381,
  "Wore": 2970,
  "Ws": 1852,
  "WsAA": 2974,
  "WsAE": 5993,
  "WsAI": 4854,
  "WsAIi": 5836,
  "WwS": 8367,
  "Wy": 9886,
  "Wz": 4289,
  "X": 59,
  "XD": 3475,
  "XDv": 6703,
  "XE": 6538,
  "XM": 2913,
  "XMachina": 7663,
  "XR": 6594,
  "XT": 8222,
  "XU": 1582,
  "XUAA": 2256,
  "XUAALl": 8688,
  "XUAE": 4433,
  "XV": 7300,
  "XW": 4532,
  "XX": 5939,
  "XZ": 5684,
  "Xb": 5663,
  "Xc": 3844,
  "XcAA": 2900,
  "XcAE": 7576,
  "XcAI": 9188,
  "Xd": 9595,
  "Xe": 8590,
  "Xenoblade": 3951,
  "XenobladeChronicles": 4397,
  "Xht": 2552,
  "Xj": 2544,
  "Xk": 1977,
  "XkAA": 3247,
  "XkAE": 3860,
  "XkAEYX": 8860,
  "Xq": 1424,
  "XqOy": 1508,
  "Xr": 8242,
  "Xy": 9489,
  "Y": 60,
  "YAl": 8093,
  "YC": 2336,
  "YCS": 5802,
  "YCUwAAw": 4109,
  "YR": 3571,
  "YRjq": 7040,
  "YT": 3808,
  "YV": 8913,
  "YX": 4322,
  "YY": 4023,
  "Year": 9879,
  "Yh": 5528,
  "Yll": 9619,
  "YllzX": 9678,
  "Yo": 4692,
  "You": 3421,
  "YouTube": 6469,
  "Your": 6194,
  "Yp": 9155,
  "Ys": 3654,
  "Ysj": 4933,
  "YsjIFMhl": 4943,
  "Yyo": 8983,
  "Yyoj": 9042,
  "Yz": 8331,
  "Z": 61,
  "ZA": 6297,
  "ZB": 7837,
  "ZF": 5011,
  "ZFKbuEm": 8372,
  "ZFKbuEmHHcCcGPge": 8378,
  "ZH": 3184,
  "ZHFHu": 9570,
  "ZHcXM": 5248,
  "ZK": 4504,
  "ZL": 4439,
  "ZLP": 8639,
  "ZO": 8931,
  "ZP": 5208,
  "ZR": 9544,
  "ZU": 5805,
  "ZUw": 9835,
  "ZUwUx": 9848,
  "ZV": 5825,
  "ZX": 6917,
  "ZZ": 2908,
  "ZZf": 3855,
  "Zb": 7705,
  "Zelda": 2456,
  "ZeldaUniverse": 4487,
  "Zg": 8463,
  "Zh": 7124,
  "Zi": 9915,
  "Zl": 8831,
  "Zp": 2675,
  "ZpK": 9104,
  "Zpb": 4111,
  "Zth": 9596,
  "Zz": 6195,
  "[": 62,
  "\\": 63,
  "\\\"": 364,
  "\\\"\",": 643,
  "\\\",": 5180,
  "\\\".": 6529,
  "\\\"\\": 722,
  "\\/": 262,
  "\\/\",\"": 1268,
  "\\/#": 7296,
  "\\/#!\\/": 8014,
  "\\/-": 2670,
  "\\/\\": 2622,
  "\\/\\/": 303,
  "\\/_": 2914,
  "]": 64,
  "]\",\"": 7861,
  "],": 1364,
  "],\"": 363,
  "],[": 1624,
  "],[-": 2260,
  "]]": 6495,
  "]]]},\"": 6596,
  "]}": 396,
  "]},\"": 573,
  "]},{\"": 686,
  "]}],\"": 591,
  "]}},\"": 1584,
  "^": 65,
  "_": 66,
  "_\",\"": 2840,
  "_-": 9150,
  "_.": 5046,
  "_\\/": 3961,
  "__": 2130,
  "____": 9820,
  "`": 67,
  "a": 68,
  "aAN": 6225,
  "aANVmrY": 6240,
  "aK": 3231,
  "aN": 4631,
  "aNkJ": 7811,
  "aNkJSn": 7812,
  "aa": 2131,
  "aaaa": 9508,
  "aaist": 6581,
  "aay": 7888,
  "ab": 1629,
  "ability": 9146,
  "able": 457,
  "ably": 4616,
  "about": 2050,
  "abric": 8826,
  "abs": 557,
  "abz": 9139,
  "ac": 1190,
  "account": 5565,
  "ace": 649,
  "aced": 7643,
  "ach": 1583,
  "ache": 9966,
  "achina": 5603,
  "achu": 6193,
  "ack": 3044,
  "acm": 3731,
  "act": 2825,
  "action": 4791,
  "ad": 574,
  "ada": 3264,
  "add": 8949,
  "additional": 1295,
  "ade": 3976,
  "ader": 5324,
  "ades": 6954,
  "adi": 4547,
  "adie": 9933,
  "ading": 5245,
  "ado": 2719,
  "ador": 3761,
  "adores": 6983,
  "adow": 6813,
  "adrid": 6217,
  "ads": 6253,
  "ady": 2760,
  "ae": 3536,
  "af": 2613,
  "ag": 552,
  "aga": 5402,
  "age": 311,
  "aged": 4180,
  "agement": 3313,
  "ager": 9022,
  "ages": 6174,
  "ago": 3965,
  "agrim": 7687,
  "ags": 663,
  "ah": 2089,
  "ai": 1662,
  "aight": 1644,
  "aign": 6090,
  "aij": 9490,
  "aijFOZth": 9710,
  "ail": 4973,
  "ailer": 9307,
  "ain": 915,
  "ains": 8535,
  "aint": 3953,
  "air": 4134,
  "ais": 4159,
  "aisy": 5504,
  "aj": 2206,
  "ajes": 8751,
  "ajor": 2695,
  "ak": 1494,
  "aka": 8874,
  "akurai": 8226,
  "al": 492,
  "ala": 3312,
  "ald": 9742,
  "ale": 2358,
  "ales": 7755,
  "alia": 4764,
  "aliforn": 5719,
  "alifornia": 5855,
  "ality": 2611,
  "alk": 2683,
  "all": 792,
  "ally": 905,
  "als": 2639,
  "alt": 9014,
  "aly": 6879,
  "am": 730,
  "amA": 6401,
  "amAko": 6719,
  "ame": 392,
  "amer": 1853,
  "ames": 1143,
  "ami": 3526,
  "aming": 1866,
  "amo": 4267,
  "amorous": 5885,
  "amos": 5134,
  "amp": 3156,
  "ampl": 957,
  "amplify": 958,
  "ams": 5560,
  "an": 338,
  "ana": 4970,
  "anc": 1975,
  "ance": 1349,
  "anced": 5715,
  "ances": 6427,
  "ancial": 3100,
  "ancing": 2603,
  "and": 532,
  "anda": 9916,
  "anding": 5627,
  "ando": 5473,
  "andom": 8368,
  "android": 1116,
  "ands": 4090,
  "ane": 4421,
  "ang": 3508,
  "ange": 2197,
  "angers": 7193,
  "angi": 9838,
  "angible": 9918,
  "ania": 9729,
  "anic": 8480,
  "anim": 1675,
  "animated": 1773,
  "anime": 6473,
  "anjim": 7825,
  "anjimver": 7838,
  "ank": 4083,
  "anks": 6904,
  "ann": 2378,
  "anna": 6236,
  "annel": 2929,
  "ano": 7803,
  "ans": 507,
  "ansas": 9937,
  "ant": 1019,
  "ante": 5274,
  "ants": 1117,
  "anuary": 1910,
  "any": 2364,
  "ao": 9362,
  "aos": 6372,
  "ap": 868,
  "apan": 7430,
  "aped": 6674,
  "api": 4045,
  "apple": 3269,
  "application": 1550,
  "appo": 4949,
  "aps": 6219,
  "aptain": 3340,
  "ar": 374,
  "ara": 5858,
  "arac": 2923,
  "arch": 6144,
  "ard": 1098,
  "ards": 5564,
  "are": 1816,
  "ared": 9974,
  "arfox": 5622,
  "arge": 605,
  "ari": 1418,
  "arily": 6186,
  "ario": 1876,
  "aris": 3979,
  "ark": 1735,
  "arm": 7016,
  "arrow": 1738,
  "ars": 2448,
  "art": 1313,
  "arter": 5330,
  "arters": 6216,
  "arth": 7421,
  "artment": 5576,
  "arty": 943,
  "ary": 1095,
  "as": 378,
  "ase": 1721,
  "ased": 3546,
  "aser": 7013,
  "ases": 6149,
  "ash": 2055,
  "ashington": 6780,
  "asi": 3191,
  "asing": 4967,
  "ason": 3423,
  "aspect": 1199,
  "ass": 4003,
  "ast": 1465,
  "aste": 7058,
  "aster": 4837,
  "astic": 4583,
  "asual": 3126,
  "asy": 1791,
  "at": 284,
  "atLhD": 4367,
  "ata": 3104,
  "atch": 2043,
  "atching": 5554,
  "ate": 387,
  "ated": 445,
  "ately": 3873,
  "ater": 3088,
  "ates": 664,
  "ath": 886,
  "ather": 3042,
  "athletic": 1079,
  "ati": 7782,
  "atic": 5608,
  "atile": 6774,
  "ating": 2317,
  "ation": 468,
  "ational": 7282,
  "ations": 1978,
  "ative": 2637,
  "ato": 5043,
  "ator": 3488,
  "ats": 3105,
  "att": 2895,
  "atter": 3216,
  "attle": 1671,
  "attributes": 6563,
  "atur": 4553,
  "ature": 6398,
  "atus": 9021,
  "au": 3006,
  "aur": 8281,
  "aut": 1048,
  "autif": 1060,
  "autiful": 1094,
  "autifully": 4161,
  "av": 1352,
  "avage": 4662,
  "aval": 5801,
  "avalry": 6478,
  "ave": 2345,
  "avh": 9804,
  "avi": 4619,
  "avier": 7042,
  "aving": 6998,
  "avy": 2196,
  "aw": 3212,
  "aways": 5811,
  "ax": 5711,
  "ay": 454,
  "ays": 7916,
  "az": 1950,
  "b": 69,
  "bA": 6980,
  "bD": 8759,
  "bH": 7452,
  "bI": 8768,
  "bQ": 5726,
  "bT": 5581,
  "bW": 9633,
  "bXq": 9909,
  "ba": 317,
  "babe": 2891,
  "bably": 2425,
  "back": 372,
  "background": 381,
  "ball": 4605,
  "band": 2890,
  "bann": 547,
  "banner": 762,
  "banners": 763,
  "bar": 525,
  "based": 6480,
  "bass": 8816,
  "bassador": 9721,
  "bau": 1798,
  "bb": 2445,
  "bbJggJ": 6499,
  "bbo": 9480,
  "bc": 5968,
  "bd": 4399,
  "be": 1012,
  "bel": 2656,
  "bels": 7434,
  "ben": 9815,
  "ber": 1176,
  "bert": 7612,
  "berto": 8927,
  "bf": 3193,
  "bg": 556,
  "bh": 9275,
  "bi": 4128,
  "biX": 8799,
  "bile": 5047,
  "bility": 4767,
  "bit": 923,
  "bitrate": 947,
  "bk": 5005,
  "bl": 5771,
  "ble": 439,
  "blem": 1690,
  "blems": 8391,
  "blo": 7360,
  "blog": 5522,
  "blogs": 8928,
  "blogspot": 9084,
  "bly": 838,
  "bm": 4189,
  "bmw": 7030,
  "bn": 5510,
  "bo": 459,
  "body": 662,
  "book": 3806,
  "bor": 5298,
  "border": 747,
  "bot": 3355,
  "bots": 5275,
  "bounding": 6546,
  "bout": 1075,
  "box": 3746,
  "boy": 4877,
  "br": 2291,
  "brWS": 8353,
  "brant": 5131,
  "bre": 3389,
  "bridge": 7851,
  "brit": 5598,
  "bros": 7864,
  "bs": 329,
  "bsc": 5237,
  "bsol": 1909,
  "bsolute": 1937,
  "bsolutely": 2002,
  "bt": 3813,
  "bu": 5806,
  "bur": 3341,
  "burg": 4598,
  "bush": 2150,
  "bust": 667,
  "but": 4338,
  "bv": 5890,
  "bx": 9047,
  "by": 2229,
  "c": 70,
  "cAA": 1391,
  "cC": 4542,
  "cGP": 8304,
  "cGPge": 8375,
  "cH": 9209,
  "cI": 9750,
  "cQ": 5024,
  "cR": 2984,
  "cRxR": 5814,
  "cRxRYCS": 5815,
  "cVw": 7785,
  "cXM": 4856,
  "cZ": 5772,
  "ca": 563,
  "cade": 5217,
  "cadeVG": 7369,
  "cage": 9733,
  "cal": 3010,
  "cally": 2880,
  "camp": 5159,
  "campaign": 7259,
  "cant": 4788,
  "car": 3289,
  "casion": 2887,
  "cast": 4124,
  "cat": 5319,
  "cate": 630,
  "cated": 9880,
  "category": 636,
  "cation": 499,
  "cations": 723,
  "cause": 1163,
  "cb": 3222,
  "cc": 3922,
  "cd": 5092,
  "ce": 370,
  "ced": 3072,
  "ceed": 5186,
  "cei": 1194,
  "ceived": 1249,
  "cember": 1401,
  "cent": 2091,
  "centroid": 3437,
  "cer": 2236,
  "ces": 414,
  "cess": 1871,
  "cf": 4377,
  "cff": 7397,
  "cg": 3414,
  "cgK": 4566,
  "ch": 463,
  "cha": 7952,
  "chan": 9975,
  "change": 6561,
  "channel": 3385,
  "che": 2811,
  "ched": 6482,
  "chelorette": 5280,
  "chi": 6930,
  "cho": 2536,
  "chool": 5696,
  "chor": 8317,
  "chorus": 9392,
  "chy": 4191,
  "ci": 962,
  "cia": 4550,
  "cial": 1204,
  "cially": 3165,
  "cias": 8051,
  "ciated": 7793,
  "cin": 9041,
  "cing": 5435,
  "cio": 6151,
  "cious": 6707,
  "cip": 6989,
  "cis": 5168,
  "city": 2954,
  "cityNow": 5804,
  "cj": 9457,
  "ck": 348,
  "cked": 6639,
  "cket": 1649,
  "ckets": 2363,
  "cktail": 5135,
  "cl": 1714,
  "clM": 7121,
  "cle": 9751,
  "clo": 4208,
  "clock": 8565,
  "co": 268,
  "coat": 9514,
  "code": 6282,
  "col": 371,
  "color": 373,
  "com": 301,
  "come": 1830,
  "comfortable": 3759,
  "commend": 1410,
  "con": 761,
  "cond": 3012,
  "cono": 9276,
  "cont": 514,
  "content": 865,
  "contin": 7188,
  "continent": 7573,
  "contribut": 534,
  "contributors": 540,
  "cooked": 5066,
  "coordin": 701,
  "coordinates": 702,
  "cor": 5110,
  "cord": 2696,
  "corpor": 9559,
  "cos": 8052,
  "cou": 322,
  "count": 324,
  "country": 2162,
  "countryNow": 5480,
  "counts": 3068,
  "cours": 7507,
  "coute": 7699,
  "cr": 1368,
  "cra": 8792,
  "cre": 395,
  "created": 533,
  "creen": 486,
  "cret": 7199,
  "crf": 3787,
  "crfJih": 3798,
  "crop": 705,
  "cs": 6921,
  "ct": 502,
  "cted": 690,
  "ction": 1557,
  "ctions": 6957,
  "ctive": 4055,
  "cto": 1278,
  "ctober": 1416,
  "ctor": 6731,
  "ctos": 5988,
  "cts": 1354,
  "cu": 4823,
  "cul": 7319,
  "cum": 7244,
  "cup": 6659,
  "cur": 2258,
  "cure": 6530,
  "curious": 6907,
  "curiouscat": 7056,
  "cus": 4138,
  "cussing": 6289,
  "cut": 9700,
  "cw": 7706,
  "cx": 8223,
  "cy": 2493,
  "cz": 6417,
  "d": 71,
  "dJ": 5578,
  "dJUYAArx": 7605,
  "dL": 7739,
  "dM": 4088,
  "dR": 7008,
  "dT": 5489,
  "dW": 7182,
  "dWAAA": 4866,
  "dWAAARWd": 5078,
  "dXcAA": 6453,
  "dXcAAXW": 6470,
  "dZ": 9988,
  "da": 1526,
  "dae": 7280,
  "dan": 9616,
  "data": 6418,
  "date": 615,
  "day": 1213,
  "db": 3240,
  "dc": 4570,
  "dcast": 6839,
  "dd": 1507,
  "ddWAA": 6675,
  "ddd": 4972,
  "de": 448,
  "deck": 2116,
  "default": 529,
  "den": 7789,
  "dent": 5776,
  "der": 3701,
  "dered": 1498,
  "description": 660,
  "deviantart": 9005,
  "dew": 9249,
  "df": 4694,
  "dg": 7924,
  "di": 302,
  "dia": 1702,
  "dice": 6399,
  "dict": 8808,
  "dier": 3424,
  "dies": 4901,
  "dis": 549,
  "discord": 4991,
  "display": 568,
  "dist": 7214,
  "dit": 3136,
  "dition": 1182,
  "ditional": 1247,
  "ditor": 4470,
  "diva": 5632,
  "dk": 6125,
  "dle": 5492,
  "dn": 5679,
  "do": 2357,
  "dom": 2845,
  "door": 4225,
  "dos": 6958,
  "down": 922,
  "download": 934,
  "dq": 4995,
  "dr": 7970,
  "dra": 9048,
  "dress": 850,
  "ds": 6621,
  "dta": 5434,
  "dtaGsyQ": 5443,
  "du": 1153,
  "duard": 7800,
  "ducing": 7113,
  "ducts": 1480,
  "duration": 1632,
  "dw": 7813,
  "dy": 631,
  "dz": 8914,
  "e": 72,
  "eMedia": 1858,
  "eS": 1879,
  "eShop": 3442,
  "eSnappyTV": 7944,
  "eTw": 780,
  "eTweet": 1927,
  "eTweetDeck": 2121,
  "eTweetbot": 6021,
  "eTwitter": 799,
  "eW": 8314,
  "ea": 2235,
  "eal": 1719,
  "ealed": 5091,
  "ear": 1554,
  "eb": 833,
  "eba": 6870,
  "ec": 2905,
  "ed": 351,
  "eda": 5283,
  "edd": 800,
  "edding": 847,
  "eder": 6130,
  "ederal": 9448,
  "ee": 421,
  "eek": 2844,
  "een": 2339,
  "eep": 1962,
  "ees": 7843,
  "eet": 1758,
  "eets": 4059,
  "ef": 6231,
  "efb": 9612,
  "eg": 3971,
  "egas": 5035,
  "eh": 7495,
  "ek": 3747,
  "el": 830,
  "elcome": 2320,
  "eld": 3631,
  "elda": 2327,
  "elt": 1236,
  "elve": 7135,
  "em": 3791,
  "emZHFHu": 9571,
  "emZHFHuG": 9576,
  "emb": 1379,
  "embedd": 1387,
  "embeddable": 1388,
  "emon": 6113,
  "en": 332,
  "enNO": 5214,
  "ena": 9993,
  "enable": 531,
  "enabled": 535,
  "ence": 3573,
  "end": 669,
  "ene": 3926,
  "eneral": 1499,
  "eng": 6847,
  "ength": 8877,
  "enix": 9185,
  "enn": 4054,
  "enob": 3288,
  "enoblade": 3317,
  "ens": 3076,
  "ensation": 6587,
  "ense": 5741,
  "ent": 551,
  "ented": 3758,
  "enter": 8671,
  "enth": 7095,
  "entities": 583,
  "enty": 7886,
  "eo": 2140,
  "ep": 1149,
  "eptember": 1623,
  "er": 308,
  "eral": 1457,
  "erd": 3106,
  "ered": 2988,
  "erfect": 855,
  "erma": 6366,
  "ermany": 6889,
  "ero": 4685,
  "erry": 6877,
  "ers": 481,
  "erson": 1823,
  "ertain": 3553,
  "ery": 1680,
  "es": 319,
  "esc": 652,
  "escription": 659,
  "esome": 3152,
  "ess": 1639,
  "esse": 6519,
  "essee": 9832,
  "est": 4612,
  "ested": 4974,
  "ester": 4857,
  "esterday": 8166,
  "et": 942,
  "etro": 6111,
  "ets": 3138,
  "europe": 2359,
  "ev": 4440,
  "evee": 9102,
  "ever": 2021,
  "every": 1689,
  "everyday": 1713,
  "ew": 1001,
  "ewis": 4364,
  "ex": 483,
  "exas": 6481,
  "exico": 8219,
  "exp": 602,
  "expand": 622,
  "expanded": 626,
  "expo": 4100,
  "ext": 1638,
  "extended": 856,
  "extra": 8810,
  "exy": 5918,
  "ey": 4654,
  "eyARJTL": 9036,
  "ez": 8978,
  "f": 73,
  "fB": 5020,
  "fG": 6935,
  "fLu": 5602,
  "fP": 8803,
  "fR": 4127,
  "fS": 5813,
  "fT": 5674,
  "fV": 8907,
  "fVQAU": 6578,
  "fX": 9071,
  "fa": 287,
  "face": 5364,
  "facebook": 5747,
  "fair": 1102,
  "false": 310,
  "fan": 6201,
  "fant": 4196,
  "fantry": 4551,
  "fault": 528,
  "fav": 455,
  "favor": 523,
  "favorite": 721,
  "favorited": 749,
  "favour": 740,
  "favourites": 753,
  "fb": 2858,
  "fc": 1621,
  "fcc": 7332,
  "fcr": 6196,
  "fd": 3556,
  "fe": 781,
  "fect": 853,
  "fer": 3299,
  "feren": 8487,
  "ference": 4886,
  "ferred": 6050,
  "fes": 3793,
  "fession": 4410,
  "fessional": 4663,
  "ff": 597,
  "ffe": 1693,
  "ffect": 6320,
  "ffi": 1750,
  "ffic": 2947,
  "fficial": 3046,
  "fficient": 7333,
  "ffort": 6656,
  "fg": 2797,
  "fh": 8479,
  "fi": 270,
  "fic": 7942,
  "fications": 727,
  "ficial": 5722,
  "fied": 6671,
  "field": 6728,
  "fil": 714,
  "file": 289,
  "fili": 4776,
  "filiate": 6407,
  "fill": 728,
  "filter": 745,
  "fin": 2750,
  "finite": 1207,
  "finitely": 1221,
  "finity": 3659,
  "fit": 353,
  "fitting": 9131,
  "fk": 6526,
  "fl": 4903,
  "flattering": 9165,
  "flo": 6411,
  "floating": 7229,
  "floatingpresent": 7350,
  "fm": 7143,
  "fmg": 8711,
  "fo": 394,
  "follow": 411,
  "followers": 752,
  "following": 748,
  "for": 1519,
  "force": 7186,
  "ford": 6270,
  "fore": 2377,
  "form": 2580,
  "formal": 1112,
  "fort": 925,
  "fortable": 967,
  "fortunately": 4954,
  "fox": 5022,
  "fp": 9527,
  "fr": 1215,
  "friends": 737,
  "ft": 1939,
  "ftw": 4395,
  "ftware": 4473,
  "fu": 4476,
  "ful": 2269,
  "full": 1088,
  "fully": 2795,
  "fx": 4867,
  "fxOL": 9897,
  "fy": 2486,
  "g": 74,
  "gC": 6286,
  "gG": 7355,
  "gK": 9010,
  "gL": 7973,
  "gQW": 7015,
  "gS": 2843,
  "gST": 9027,
  "gT": 5558,
  "gTVMAA": 7615,
  "gU": 4750,
  "gV": 7189,
  "gW": 2932,
  "gX": 7374,
  "gY": 5084,
  "ga": 1732,
  "game": 3322,
  "gamer": 5897,
  "games": 1665,
  "gamespot": 1923,
  "gamestop": 8509,
  "gami": 6955,
  "gaming": 5429,
  "gan": 3125,
  "gar": 6095,
  "gb": 3024,
  "gd": 6565,
  "gdP": 8812,
  "ge": 291,
  "ged": 5706,
  "gel": 7849,
  "gen": 3830,
  "gend": 6518,
  "gender": 9949,
  "gener": 9689,
  "gent": 7367,
  "geo": 506,
  "geous": 1651,
  "ger": 1461,
  "gers": 3993,
  "ges": 3875,
  "get": 4921,
  "gether": 4431,
  "gfT": 9135,
  "gg": 2143,
  "ggJ": 6474,
  "ggie": 8739,
  "gh": 1030,
  "ght": 1090,
  "ghter": 1646,
  "gi": 1377,
  "gif": 844,
  "gin": 4884,
  "ging": 4910,
  "gital": 9989,
  "given": 9892,
  "giving": 3576,
  "gjd": 7512,
  "gl": 4075,
  "gle": 6349,
  "gmail": 4952,
  "gment": 9958,
  "gn": 2566,
  "gni": 6350,
  "go": 2787,
  "gon": 1999,
  "goo": 7449,
  "gory": 635,
  "got": 9348,
  "gown": 1089,
  "gr": 3178,
  "gra": 9381,
  "graph": 3175,
  "graphy": 8075,
  "gre": 8512,
  "great": 8039,
  "gree": 6169,
  "ground": 380,
  "gs": 2550,
  "gsD": 7021,
  "gsDYRjq": 7045,
  "gt": 6224,
  "gu": 4923,
  "gular": 1575,
  "gw": 5748,
  "gy": 4780,
  "h": 75,
  "hAB": 2527,
  "hB": 4879,
  "hBg": 3811,
  "hBgI": 3821,
  "hBod": 7043,
  "hC": 9119,
  "hE": 5907,
  "hEpT": 5213,
  "hK": 6273,
  "hP": 6267,
  "hS": 5096,
  "ha": 4000,
  "hak": 4779,
  "ham": 7727,
  "has": 666,
  "hasht": 671,
  "hashtags": 674,
  "he": 446,
  "head": 7909,
  "hears": 4297,
  "hearsal": 4304,
  "height": 646,
  "hel": 8967,
  "hen": 7821,
  "her": 3578,
  "here": 1768,
  "hh": 5019,
  "hi": 4498,
  "hip": 8617,
  "hl": 3478,
  "ho": 485,
  "hold": 6868,
  "holders": 9474,
  "hone": 973,
  "hop": 3034,
  "hoto": 564,
  "houette": 7748,
  "hourglass": 1024,
  "house": 7038,
  "hout": 3581,
  "hp": 6792,
  "hq": 3205,
  "hqHxp": 5153,
  "hr": 6114,
  "href": 6634,
  "hs": 4468,
  "ht": 280,
  "htAs": 8678,
  "html": 7689,
  "http": 294,
  "https": 312,
  "hu": 6293,
  "hy": 3087,
  "i": 76,
  "iA": 9227,
  "iF": 9739,
  "iG": 6301,
  "iGIvLC": 8132,
  "iP": 5689,
  "iQV": 5233,
  "iUEAA": 9869,
  "iUEAAn": 9875,
  "ia": 1552,
  "ial": 1304,
  "ially": 7853,
  "iam": 9809,
  "ian": 3232,
  "ib": 8034,
  "ible": 5946,
  "ic": 589,
  "icago": 5628,
  "ical": 4016,
  "icate": 9300,
  "ice": 1245,
  "ich": 1062,
  "icha": 8517,
  "ichael": 9538,
  "icip": 8064,
  "ick": 1256,
  "ico": 3622,
  "ics": 3306,
  "ict": 1826,
  "id": 278,
  "ida": 5059,
  "idad": 9011,
  "ide": 385,
  "ided": 3944,
  "ident": 4848,
  "ideo": 466,
  "ider": 2752,
  "ides": 3540,
  "idg": 9082,
  "idge": 4719,
  "iding": 8453,
  "idley": 2738,
  "idluigi": 6074,
  "idn": 6243,
  "ido": 3431,
  "ids": 6140,
  "ie": 391,
  "ied": 7224,
  "ief": 4572,
  "iel": 4680,
  "ien": 1742,
  "ient": 1047,
  "ienven": 4471,
  "ier": 3597,
  "ies": 1969,
  "iet": 9752,
  "ieuten": 3329,
  "ieutenant": 3428,
  "ieve": 9654,
  "iew": 417,
  "if": 566,
  "ife": 2839,
  "iff": 8595,
  "ifi": 716,
  "ificant": 5363,
  "ified": 733,
  "iforn": 5659,
  "ift": 2096,
  "ify": 956,
  "ig": 420,
  "ige": 9120,
  "igh": 1162,
  "ight": 449,
  "ighted": 8035,
  "ighter": 3225,
  "ighters": 7161,
  "igi": 4279,
  "ign": 2148,
  "igner": 4215,
  "ii": 3135,
  "iibo": 8143,
  "iif": 7521,
  "ik": 2144,
  "ika": 7721,
  "ikachu": 6537,
  "ike": 9210,
  "il": 834,
  "ilar": 6531,
  "ild": 3492,
  "ile": 1472,
  "iled": 7097,
  "iler": 9194,
  "ili": 9360,
  "ilit": 6057,
  "ilitary": 6812,
  "ilities": 4595,
  "ility": 2989,
  "ill": 955,
  "illa": 9922,
  "ille": 2708,
  "illed": 6375,
  "iller": 6347,
  "illion": 2741,
  "illy": 7254,
  "ilm": 5427,
  "ilo": 8889,
  "ils": 3468,
  "ilt": 7035,
  "ilv": 2199,
  "ilvCCS": 2201,
  "ilvCCSGX": 2202,
  "ily": 7293,
  "im": 279,
  "image": 318,
  "images": 418,
  "imal": 2310,
  "imate": 1141,
  "ime": 479,
  "iment": 3048,
  "imented": 7227,
  "iments": 971,
  "imes": 2476,
  "img": 336,
  "imos": 6227,
  "imple": 9338,
  "ims": 7328,
  "in": 272,
  "ina": 2665,
  "inal": 2881,
  "inally": 6886,
  "ination": 5162,
  "ince": 1913,
  "inch": 5515,
  "ind": 1894,
  "inda": 9481,
  "indi": 423,
  "indices": 427,
  "ine": 1139,
  "ined": 3583,
  "ineer": 7562,
  "iner": 5347,
  "ines": 3754,
  "iness": 2446,
  "info": 979,
  "ing": 345,
  "inger": 8120,
  "ings": 1734,
  "ington": 5773,
  "ini": 6060,
  "ining": 1771,
  "ink": 638,
  "inner": 2159,
  "ino": 4704,
  "ins": 1759,
  "instagram": 3828,
  "int": 1348,
  "intain": 7894,
  "inted": 5441,
  "intend": 428,
  "intendeal": 2034,
  "intendo": 433,
  "inter": 3293,
  "iny": 3933,
  "io": 1023,
  "iod": 4548,
  "ion": 360,
  "ionis": 8984,
  "ions": 628,
  "ior": 6423,
  "ios": 9333,
  "ious": 2522,
  "iously": 8099,
  "ip": 878,
  "ipad": 8013,
  "iphone": 1257,
  "ips": 1895,
  "ique": 2971,
  "ir": 760,
  "ira": 7558,
  "irai": 3249,
  "iraiCEO": 4125,
  "ird": 2777,
  "ire": 860,
  "irect": 1021,
  "ired": 2285,
  "ires": 8505,
  "iring": 7053,
  "irl": 5511,
  "irm": 7233,
  "irmish": 7753,
  "irst": 4178,
  "irt": 1655,
  "irth": 3167,
  "irthday": 3582,
  "irty": 4707,
  "is": 340,
  "ise": 2207,
  "ish": 1538,
  "ished": 7091,
  "ising": 5282,
  "ism": 9248,
  "ison": 5306,
  "iss": 2431,
  "issance": 9738,
  "ist": 996,
  "iste": 2341,
  "isted": 9268,
  "ister": 9092,
  "istic": 5486,
  "it": 307,
  "ita": 6767,
  "ital": 4063,
  "itch": 793,
  "ite": 415,
  "itea": 8650,
  "ited": 684,
  "item": 632,
  "ites": 735,
  "ith": 3032,
  "ither": 3652,
  "iti": 495,
  "ities": 576,
  "ition": 2040,
  "itions": 5671,
  "itious": 3898,
  "itive": 883,
  "itle": 1357,
  "ito": 5898,
  "its": 3223,
  "itter": 397,
  "ittle": 989,
  "ity": 1036,
  "iv": 4804,
  "ive": 1267,
  "iver": 5251,
  "ivers": 9218,
  "ivez": 7426,
  "ix": 2349,
  "iy": 9183,
  "iz": 1488,
  "ize": 4266,
  "ized": 4586,
  "izuki": 6900,
  "izza": 8605,
  "j": 77,
  "jB": 8403,
  "jC": 9736,
  "jI": 7559,
  "jJ": 8712,
  "jL": 2785,
  "jM": 4760,
  "jMbXq": 9925,
  "jMbXqM": 9928,
  "jN": 2886,
  "jNt": 3330,
  "jR": 7665,
  "jS": 5817,
  "jSnFcVw": 7832,
  "jU": 8530,
  "jV": 9734,
  "jW": 5693,
  "jX": 7323,
  "jZ": 3849,
  "ja": 1857,
  "jacket": 5612,
  "jc": 4610,
  "jcMt": 7041,
  "jcMtB": 7047,
  "jd": 3364,
  "je": 2061,
  "ject": 3975,
  "jeux": 4617,
  "jeuxvideo": 4642,
  "jf": 6367,
  "ji": 7048,
  "jim": 7029,
  "jk": 4538,
  "jm": 1915,
  "jmd": 2463,
  "jmdornbush": 2469,
  "jo": 2142,
  "jor": 5563,
  "joy": 3537,
  "jp": 410,
  "jpcb": 9562,
  "jpcbvoX": 9575,
  "jpeg": 2607,
  "jpg": 412,
  "jq": 5281,
  "jr": 6504,
  "js": 9919,
  "json": 4121,
  "jt": 9086,
  "ju": 2108,
  "juN": 8885,
  "juP": 3139,
  "juPMiRfg": 3147,
  "juanjimver": 8631,
  "juegos": 3479,
  "jumpsuit": 3365,
  "just": 3552,
  "justed": 8319,
  "jutant": 4773,
  "jv": 4425,
  "jvz": 9254,
  "jy": 5963,
  "k": 78,
  "kA": 7712,
  "kF": 8057,
  "kJ": 5744,
  "kL": 7628,
  "kN": 3972,
  "kU": 4644,
  "kUrUYAA": 8717,
  "kX": 9737,
  "kZ": 8513,
  "ka": 3284,
  "ke": 783,
  "ked": 2042,
  "kemon": 4589,
  "ken": 3722,
  "ker": 8793,
  "kes": 4632,
  "ket": 8351,
  "key": 7988,
  "kh": 5405,
  "ki": 4305,
  "king": 4019,
  "kk": 8834,
  "kl": 4243,
  "klhtAs": 8680,
  "kling": 6686,
  "kn": 5057,
  "known": 7648,
  "ko": 2569,
  "kq": 2758,
  "kqar": 6025,
  "krz": 8175,
  "ks": 2302,
  "kt": 2804,
  "ktK": 6490,
  "ktUwAUo": 4112,
  "ku": 4864,
  "kv": 7190,
  "kward": 6951,
  "kx": 7170,
  "ky": 2982,
  "kz": 6819,
  "l": 79,
  "lD": 7132,
  "lJr": 3481,
  "lMe": 8586,
  "lP": 6701,
  "lPjSnFcVw": 7834,
  "lR": 7164,
  "lX": 8123,
  "lY": 7758,
  "lZ": 7513,
  "la": 990,
  "laV": 7502,
  "lace": 4137,
  "lack": 1358,
  "lade": 3067,
  "lan": 520,
  "lance": 5588,
  "land": 1849,
  "lang": 537,
  "large": 650,
  "las": 893,
  "lass": 994,
  "last": 6786,
  "lat": 494,
  "lator": 536,
  "lattering": 4563,
  "laure": 6497,
  "laureate": 6673,
  "lay": 6489,
  "lazer": 5729,
  "lbs": 709,
  "ld": 1014,
  "le": 273,
  "lease": 4940,
  "lect": 2934,
  "lectronic": 4597,
  "led": 1746,
  "lee": 1942,
  "leg": 1838,
  "legant": 2343,
  "leigh": 9746,
  "len": 5349,
  "ler": 1261,
  "lers": 5265,
  "lerts": 4529,
  "les": 1049,
  "less": 1603,
  "let": 5613,
  "letic": 1078,
  "level": 732,
  "lex": 5194,
  "ley": 2060,
  "lf": 2110,
  "lh": 3158,
  "li": 2081,
  "lic": 5184,
  "lie": 3895,
  "lig": 6829,
  "light": 5452,
  "like": 6251,
  "lim": 3841,
  "limit": 8445,
  "limited": 6742,
  "lin": 5844,
  "line": 1987,
  "ling": 2298,
  "link": 725,
  "links": 6575,
  "lis": 710,
  "lish": 3283,
  "lished": 9584,
  "list": 3352,
  "listed": 738,
  "live": 8390,
  "ll": 276,
  "lla": 6694,
  "llar": 8459,
  "lle": 2348,
  "lled": 7593,
  "llen": 7339,
  "llent": 7604,
  "lli": 8954,
  "lling": 4740,
  "llo": 6990,
  "llow": 406,
  "lls": 7273,
  "lly": 2107,
  "lm": 8146,
  "lo": 447,
  "load": 930,
  "location": 726,
  "locationString": 5426,
  "log": 2195,
  "logi": 2169,
  "logies": 2321,
  "logy": 4827,
  "lor": 6810,
  "lorette": 4543,
  "los": 3356,
  "loud": 9311,
  "love": 2601,
  "low": 685,
  "lr": 2674,
  "ls": 579,
  "lse": 309,
  "lso": 1233,
  "lt": 1085,
  "ltimate": 1183,
  "lu": 2383,
  "lue": 2435,
  "luigi": 6056,
  "lun": 7103,
  "luu": 4777,
  "lv": 5455,
  "lwl": 8784,
  "lwlIVqJm": 8789,
  "lwlIVqJmAi": 8790,
  "lx": 8953,
  "ly": 513,
  "lyHD": 9826,
  "lygon": 2039,
  "lz": 6302,
  "m": 80,
  "mB": 6517,
  "mEp": 8081,
  "mEpW": 8104,
  "mP": 9411,
  "mU": 5585,
  "mV": 9990,
  "mW": 9561,
  "mX": 6129,
  "ma": 334,
  "mac": 7071,
  "mach": 5048,
  "maci": 5596,
  "maid": 9008,
  "mail": 2921,
  "make": 4737,
  "mal": 477,
  "male": 7453,
  "malink": 3314,
  "mall": 600,
  "mally": 2792,
  "man": 1788,
  "mance": 6279,
  "mand": 1685,
  "manding": 3726,
  "mante": 9603,
  "mar": 2925,
  "mario": 8618,
  "marvelous": 9761,
  "mary": 640,
  "mas": 2669,
  "mash": 818,
  "master": 4521,
  "masterdata": 6651,
  "masterdataapi": 6652,
  "maxi": 4409,
  "maz": 1716,
  "mazing": 1755,
  "mb": 819,
  "mber": 954,
  "mblem": 2087,
  "mbo": 665,
  "mbols": 673,
  "mbre": 8686,
  "mcr": 8135,
  "mcrziF": 8171,
  "md": 6168,
  "me": 288,
  "med": 2137,
  "medi": 354,
  "media": 384,
  "medium": 681,
  "member": 8926,
  "men": 2720,
  "mend": 1366,
  "ment": 585,
  "mentions": 672,
  "ments": 1491,
  "mer": 1260,
  "merica": 3901,
  "merly": 7307,
  "mes": 4969,
  "met": 7854,
  "mg": 4375,
  "mh": 5537,
  "mhXb": 9817,
  "mi": 1884,
  "mic": 7790,
  "mill": 1614,
  "millis": 1633,
  "mily": 4650,
  "min": 2135,
  "ming": 3883,
  "mini": 4996,
  "mis": 4167,
  "mission": 5355,
  "mit": 3827,
  "mith": 7026,
  "mitted": 9883,
  "ml": 4761,
  "mm": 9819,
  "mo": 1380,
  "mobile": 5640,
  "mon": 1328,
  "mond": 8523,
  "mone": 1290,
  "monetizable": 1294,
  "mony": 8543,
  "mor": 7176,
  "mos": 8249,
  "most": 3111,
  "mp": 550,
  "mpIG": 4455,
  "mpeg": 1634,
  "mpegURL": 1635,
  "mper": 3029,
  "mq": 2985,
  "mqt": 8528,
  "ms": 786,
  "mslun": 7696,
  "mslunagrim": 7697,
  "mu": 4599,
  "mun": 2356,
  "munity": 7523,
  "mx": 8435,
  "my": 1438,
  "myL": 8339,
  "myLRuWwS": 8376,
  "myLRuWwSfo": 8379,
  "n": 81,
  "nA": 2480,
  "nAs": 9349,
  "nB": 3308,
  "nBrigadier": 7415,
  "nC": 2578,
  "nCol": 8902,
  "nColonel": 9323,
  "nCom": 8291,
  "nCons": 8677,
  "nD": 5437,
  "nE": 7314,
  "nF": 3173,
  "nFcVw": 7830,
  "nG": 4026,
  "nGeneral": 8702,
  "nH": 4508,
  "nI": 2078,
  "nIn": 5295,
  "nIt": 9836,
  "nJ": 4386,
  "nK": 8338,
  "nL": 4067,
  "nM": 2449,
  "nMajor": 5626,
  "nN": 4036,
  "nNintendo": 3745,
  "nO": 2495,
  "nOn": 9604,
  "nOur": 7879,
  "nP": 3241,
  "nPz": 7466,
  "nPzVX": 7489,
  "nQ": 7786,
  "nR": 4258,
  "nRe": 8552,
  "nS": 2958,
  "nT": 4686,
  "nThe": 2648,
  "nTotal": 8118,
  "nTweets": 9366,
  "nU": 5121,
  "nUEAA": 5199,
  "nUEAADR": 5212,
  "nV": 9198,
  "nW": 4908,
  "nWe": 4916,
  "nX": 8932,
  "nY": 6922,
  "na": 1802,
  "nake": 3966,
  "nal": 8320,
  "name": 422,
  "nap": 2538,
  "nappy": 2743,
  "nappyTV": 3080,
  "nc": 2933,
  "ncjL": 3848,
  "nd": 286,
  "nde": 7092,
  "nder": 2626,
  "ndo": 5917,
  "ndon": 5705,
  "ne": 1107,
  "neath": 3871,
  "ned": 3614,
  "nees": 6134,
  "nel": 9905,
  "ner": 1263,
  "ners": 9151,
  "nes": 6784,
  "ness": 3551,
  "net": 3456,
  "new": 4946,
  "news": 7174,
  "ney": 3931,
  "nfd": 9412,
  "nfdGjM": 9445,
  "ng": 572,
  "nga": 9674,
  "ngth": 1237,
  "nh": 9024,
  "nhttps": 6643,
  "ni": 1353,
  "nia": 6553,
  "night": 3441,
  "ning": 1374,
  "nins": 9458,
  "ninswitchnews": 9470,
  "nintendeal": 9007,
  "nintendo": 1298,
  "nintendoE": 9853,
  "nintendoe": 5597,
  "nintendoeurope": 6657,
  "nite": 1059,
  "nk": 6030,
  "nl": 4567,
  "nm": 8436,
  "nn": 543,
  "nne": 6556,
  "no": 444,
  "nobel": 3561,
  "nobelPri": 5058,
  "nobelPrize": 6629,
  "nobelprize": 6650,
  "nofollow": 758,
  "none": 768,
  "noon": 9256,
  "normal": 526,
  "not": 3153,
  "nother": 2482,
  "noti": 713,
  "notifications": 746,
  "nous": 7561,
  "now": 9420,
  "npK": 8316,
  "nq": 7463,
  "nr": 7654,
  "ns": 848,
  "nsitive": 901,
  "nt": 282,
  "nta": 8311,
  "nted": 613,
  "nth": 3056,
  "nthusiast": 8336,
  "nto": 3446,
  "ntro": 5869,
  "nts": 805,
  "nty": 5800,
  "nu": 6345,
  "null": 298,
  "nx": 8823,
  "ny": 1073,
  "nyGG": 9566,
  "nyT": 9055,
  "o": 82,
  "oL": 9784,
  "oM": 8722,
  "oMir": 9984,
  "oPr": 8070,
  "oPrt": 8103,
  "oR": 9585,
  "oU": 8201,
  "ob": 1870,
  "obel": 7784,
  "oc": 7822,
  "od": 1777,
  "odos": 8113,
  "ods": 6364,
  "oe": 8428,
  "of": 3653,
  "off": 734,
  "offset": 755,
  "og": 8141,
  "oh": 3326,
  "ohn": 6484,
  "oice": 3282,
  "ok": 863,
  "oked": 3611,
  "oking": 8068,
  "oks": 5085,
  "ol": 870,
  "old": 1686,
  "olf": 7275,
  "olid": 2802,
  "olidated": 5921,
  "oliday": 3963,
  "ollow": 2427,
  "olunte": 5863,
  "om": 952,
  "ome": 1749,
  "omrd": 9719,
  "on": 304,
  "ona": 7497,
  "one": 451,
  "onel": 2646,
  "onents": 7529,
  "ones": 7522,
  "oney": 6148,
  "ong": 1097,
  "onger": 3019,
  "onic": 5430,
  "onna": 8664,
  "onor": 4581,
  "ons": 1602,
  "ony": 4624,
  "oo": 1040,
  "ood": 1334,
  "oon": 1979,
  "oooo": 9242,
  "oose": 8231,
  "op": 1776,
  "ople": 2800,
  "ops": 3850,
  "or": 275,
  "ora": 5285,
  "orable": 6004,
  "orbrit": 7144,
  "orbritan": 7145,
  "ord": 497,
  "order": 692,
  "ordin": 698,
  "ore": 1706,
  "ored": 6771,
  "org": 4721,
  "orge": 7477,
  "orgeous": 1652,
  "oria": 8049,
  "ories": 5301,
  "oring": 9534,
  "orionis": 9504,
  "ork": 968,
  "orld": 5065,
  "orm": 7672,
  "ormal": 489,
  "orn": 1181,
  "orna": 6353,
  "ornbush": 2153,
  "orning": 3435,
  "ors": 517,
  "ort": 731,
  "orter": 3051,
  "orth": 5158,
  "ortiz": 9837,
  "ortnite": 1955,
  "ory": 608,
  "os": 1007,
  "ose": 1466,
  "oster": 4682,
  "ot": 866,
  "otal": 6818,
  "other": 1764,
  "ots": 2916,
  "ou": 676,
  "ough": 1203,
  "ought": 2204,
  "ount": 2149,
  "our": 400,
  "ource": 478,
  "ourg": 1004,
  "ourglass": 1009,
  "ouri": 9231,
  "ous": 1412,
  "out": 1140,
  "outh": 4195,
  "outube": 1669,
  "outuber": 6787,
  "ove": 1248,
  "ovember": 1559,
  "over": 2733,
  "overn": 7591,
  "ow": 341,
  "ower": 4697,
  "own": 707,
  "ox": 4401,
  "oy": 1591,
  "oz": 9528,
  "p": 83,
  "pB": 4319,
  "pC": 7301,
  "pD": 5122,
  "pH": 5866,
  "pHs": 7543,
  "pK": 4020,
  "pKjd": 7740,
  "pL": 8342,
  "pU": 2893,
  "pW": 9228,
  "pX": 4062,
  "pa": 1240,
  "pal": 6442,
  "pan": 1576,
  "panx": 3501,
  "par": 5308,
  "pare": 8796,
  "pared": 5532,
  "party": 1159,
  "pat": 6496,
  "pbs": 377,
  "pd": 1428,
  "pdAGD": 1509,
  "pe": 362,
  "pear": 1321,
  "pecially": 3360,
  "pect": 1080,
  "pected": 9505,
  "pective": 7640,
  "ped": 2102,
  "peg": 1327,
  "pen": 5413,
  "pend": 4035,
  "per": 1136,
  "permalink": 3315,
  "pes": 3874,
  "pet": 1232,
  "petite": 1323,
  "ph": 1657,
  "phistic": 6247,
  "phisticated": 6255,
  "photo": 570,
  "pi": 2585,
  "pic": 694,
  "pical": 8846,
  "pically": 3892,
  "pin": 7467,
  "ping": 2965,
  "pite": 7545,
  "pix": 9796,
  "pl": 315,
  "place": 700,
  "plat": 2157,
  "platoon": 2370,
  "play": 554,
  "player": 8071,
  "ple": 1169,
  "pli": 1419,
  "plic": 9861,
  "plication": 1528,
  "pliments": 8228,
  "ploy": 4060,
  "ply": 356,
  "pm": 3591,
  "png": 607,
  "po": 678,
  "polis": 7969,
  "pologies": 2440,
  "polygon": 3785,
  "pon": 4315,
  "pond": 2094,
  "por": 2574,
  "port": 1339,
  "ported": 5470,
  "portion": 7179,
  "ports": 5146,
  "pos": 6204,
  "pose": 5919,
  "posed": 5758,
  "possi": 895,
  "possibly": 902,
  "pot": 1189,
  "pp": 8557,
  "pping": 6837,
  "pq": 8992,
  "pr": 1363,
  "pre": 3159,
  "present": 5547,
  "press": 5163,
  "pri": 1161,
  "priate": 3161,
  "pril": 1586,
  "pring": 2703,
  "prising": 8527,
  "prize": 3568,
  "prizeAmount": 6618,
  "pro": 285,
  "products": 2118,
  "profile": 290,
  "prote": 729,
  "protected": 739,
  "ps": 1243,
  "pt": 1514,
  "ption": 647,
  "pu": 1598,
  "pw": 9844,
  "py": 1566,
  "q": 84,
  "qC": 8856,
  "qI": 8036,
  "qJm": 8785,
  "qK": 5624,
  "qKI": 9904,
  "qQ": 7629,
  "qT": 2747,
  "qTM": 4290,
  "qTN": 6582,
  "qU": 3907,
  "qV": 6984,
  "qY": 7621,
  "qZ": 5101,
  "qex": 9920,
  "qi": 3528,
  "qj": 9667,
  "ql": 3130,
  "qo": 4706,
  "qoPN": 7614,
  "qof": 8416,
  "qp": 4426,
  "qq": 8382,
  "qs": 8305,
  "qt": 7617,
  "qu": 474,
  "quarters": 6985,
  "que": 637,
  "quent": 7987,
  "quest": 703,
  "qui": 5973,
  "quo": 508,
  "quote": 539,
  "quoted": 1487,
  "qz": 7865,
  "r": 85,
  "rC": 9779,
  "rF": 5638,
  "rS": 7098,
  "rUYAA": 8458,
  "rW": 7266,
  "rY": 2211,
  "rYFb": 5386,
  "rYlJr": 3484,
  "ra": 784,
  "rabb": 5655,
  "rabbidluigi": 6077,
  "rac": 6626,
  "rag": 2807,
  "ragon": 3804,
  "rai": 8022,
  "ram": 2031,
  "rame": 3171,
  "ran": 811,
  "rance": 1555,
  "rand": 5125,
  "range": 913,
  "rant": 3695,
  "rap": 6110,
  "raph": 2510,
  "raphic": 9510,
  "ras": 7152,
  "rat": 594,
  "rate": 937,
  "rating": 639,
  "ratio": 1197,
  "ray": 7514,
  "raz": 7780,
  "rb": 9030,
  "rd": 1863,
  "rder": 8097,
  "re": 267,
  "ready": 5191,
  "real": 8010,
  "ream": 2864,
  "reamer": 4992,
  "reams": 4652,
  "reat": 872,
  "reator": 9630,
  "rect": 5829,
  "red": 976,
  "ree": 1469,
  "reehouse": 9211,
  "reek": 8003,
  "ref": 711,
  "regular": 2184,
  "rel": 4900,
  "rely": 4801,
  "reme": 3235,
  "remely": 3504,
  "remony": 8896,
  "ren": 2006,
  "rence": 3348,
  "rench": 8817,
  "rend": 5451,
  "rent": 1976,
  "rented": 641,
  "reply": 357,
  "request": 751,
  "res": 442,
  "resident": 9563,
  "resize": 405,
  "ress": 460,
  "ressed": 5915,
  "rest": 2350,
  "restling": 4374,
  "ret": 1083,
  "retch": 1744,
  "rette": 4438,
  "retty": 1477,
  "retwee": 493,
  "retweet": 743,
  "retweeted": 625,
  "rev": 413,
  "rever": 9414,
  "review": 419,
  "rew": 4500,
  "rey": 7267,
  "rf": 6716,
  "ri": 350,
  "rib": 519,
  "rible": 9889,
  "ribut": 530,
  "ributes": 6370,
  "ric": 1238,
  "rica": 3511,
  "rick": 6588,
  "rid": 3679,
  "rie": 4303,
  "ried": 2152,
  "riend": 697,
  "riends": 720,
  "ries": 1980,
  "rig": 8229,
  "riga": 2561,
  "rigade": 4234,
  "rigadier": 3596,
  "right": 3369,
  "rike": 8251,
  "rim": 5864,
  "ring": 9438,
  "rings": 4785,
  "rink": 3493,
  "rio": 4975,
  "rious": 7787,
  "ription": 655,
  "ris": 3646,
  "rison": 9696,
  "rist": 3599,
  "rit": 3760,
  "riter": 3928,
  "rk": 6603,
  "ro": 271,
  "road": 5501,
  "rock": 8137,
  "roid": 862,
  "rol": 2885,
  "rom": 5262,
  "romper": 4768,
  "ron": 1782,
  "rong": 4231,
  "ronic": 2687,
  "ronicles": 3777,
  "ront": 8449,
  "room": 6412,
  "rop": 683,
  "ror": 6232,
  "ros": 789,
  "ross": 1470,
  "rossed": 9074,
  "rossing": 2141,
  "roug": 1562,
  "rough": 7203,
  "rought": 7425,
  "round": 376,
  "rous": 3832,
  "row": 1362,
  "rowd": 8352,
  "rown": 7136,
  "roy": 7419,
  "rp": 8271,
  "rr": 6820,
  "rs": 4913,
  "ru": 3740,
  "ruary": 1951,
  "rule": 8510,
  "rv": 8857,
  "rx": 5987,
  "ry": 588,
  "rz": 3794,
  "rzCAY": 8638,
  "rzCAYZLP": 8642,
  "s": 86,
  "sA": 8490,
  "sATR": 9573,
  "sOE": 5140,
  "sOEhqHxp": 5155,
  "sU": 2717,
  "sa": 4648,
  "scal": 7100,
  "screen": 487,
  "se": 274,
  "search": 8394,
  "section": 5525,
  "sed": 1241,
  "sel": 7630,
  "self": 2903,
  "sen": 4021,
  "sensitive": 903,
  "sent": 687,
  "seps": 5642,
  "ser": 1989,
  "serv": 3712,
  "servative": 4280,
  "ses": 1299,
  "sessed": 8770,
  "set": 704,
  "sey": 7889,
  "sf": 9620,
  "sg": 3477,
  "sh": 774,
  "she": 1529,
  "sheath": 1580,
  "shi": 7779,
  "shift": 2483,
  "shion": 3857,
  "shirt": 7064,
  "sho": 8713,
  "si": 321,
  "sible": 7933,
  "sic": 2686,
  "side": 521,
  "sidebar": 541,
  "sil": 8187,
  "sin": 8062,
  "sing": 4249,
  "sion": 1254,
  "sis": 4333,
  "site": 4070,
  "sive": 4960,
  "siz": 328,
  "size": 339,
  "sizes": 682,
  "sk": 4735,
  "skirt": 7363,
  "sm": 6276,
  "small": 648,
  "smash": 8591,
  "sn": 6450,
  "snappy": 7939,
  "snappytv": 7945,
  "so": 2164,
  "social": 6533,
  "son": 2735,
  "source": 480,
  "sp": 4796,
  "span": 3395,
  "ss": 1990,
  "ssi": 849,
  "ssistant": 5728,
  "st": 281,
  "stR": 8017,
  "sta": 796,
  "stag": 2464,
  "stagram": 2478,
  "stamp": 824,
  "stance": 5957,
  "stances": 9991,
  "standing": 7496,
  "stant": 2645,
  "star": 8754,
  "stat": 347,
  "station": 5694,
  "statu": 9881,
  "status": 365,
  "statuses": 750,
  "ste": 3142,
  "stead": 4318,
  "ster": 3769,
  "stick": 7456,
  "stin": 9579,
  "sting": 6426,
  "stit": 7609,
  "stly": 6271,
  "sto": 9550,
  "ston": 4576,
  "stop": 4885,
  "stopper": 9028,
  "str": 346,
  "straight": 1840,
  "stric": 7391,
  "strict": 5218,
  "stricted": 9153,
  "stride": 9740,
  "string": 6965,
  "stru": 5423,
  "struct": 5830,
  "stry": 6425,
  "sts": 2975,
  "studio": 1846,
  "sty": 7680,
  "su": 1616,
  "suOE": 5268,
  "suOEqi": 5270,
  "sue": 3271,
  "sum": 634,
  "summary": 642,
  "super": 7840,
  "support": 7560,
  "suq": 6911,
  "sure": 9328,
  "sw": 9121,
  "swe": 8298,
  "sweater": 9244,
  "switch": 8007,
  "sy": 633,
  "symbols": 675,
  "t": 87,
  "tI": 5209,
  "tK": 5702,
  "tLV": 8411,
  "tLVe": 9373,
  "tN": 8094,
  "tVM": 7327,
  "tVMY": 7533,
  "tW": 5656,
  "tY": 5697,
  "ta": 1134,
  "tag": 940,
  "tail": 4669,
  "tain": 1687,
  "tal": 3376,
  "tap": 5851,
  "tapbots": 6022,
  "td": 4198,
  "te": 264,
  "ted": 320,
  "teenth": 8074,
  "tel": 6226,
  "tely": 3632,
  "tem": 6647,
  "tember": 1595,
  "temp": 5947,
  "ten": 2029,
  "tend": 402,
  "tended": 845,
  "tent": 836,
  "tention": 4895,
  "ter": 342,
  "terally": 8549,
  "tered": 5493,
  "terial": 1398,
  "tering": 1209,
  "tern": 1821,
  "ternet": 3921,
  "ters": 2147,
  "tertain": 3872,
  "tertainment": 4210,
  "tes": 2689,
  "teur": 7225,
  "text": 358,
  "tf": 4659,
  "tg": 7743,
  "th": 292,
  "that": 8656,
  "the": 323,
  "them": 9888,
  "theme": 430,
  "themes": 559,
  "ther": 936,
  "thern": 8612,
  "thers": 3598,
  "thes": 8628,
  "they": 8432,
  "thing": 1341,
  "this": 8050,
  "thor": 5344,
  "though": 3345,
  "thumb": 592,
  "ti": 458,
  "tiW": 6006,
  "tic": 1038,
  "tie": 9668,
  "ties": 3015,
  "tile": 741,
  "till": 7379,
  "tille": 4948,
  "tillery": 4999,
  "time": 555,
  "times": 3801,
  "timestamp": 826,
  "ting": 1450,
  "tion": 595,
  "tist": 3572,
  "title": 1382,
  "tiv": 4772,
  "tive": 2918,
  "tiz": 1270,
  "tizable": 1293,
  "tk": 4924,
  "tle": 899,
  "tne": 8668,
  "tneK": 8710,
  "to": 314,
  "tock": 5677,
  "tom": 2333,
  "ton": 2304,
  "top": 2064,
  "total": 5610,
  "totaldiva": 5643,
  "totaldivaseps": 5644,
  "tour": 8026,
  "tp": 293,
  "tq": 7245,
  "tr": 366,
  "tra": 8673,
  "track": 8211,
  "trans": 522,
  "translator": 538,
  "trini": 8649,
  "triniitea": 8667,
  "true": 503,
  "trunc": 754,
  "truncated": 756,
  "ts": 1166,
  "tt": 3584,
  "tte": 4568,
  "tter": 1916,
  "tu": 7554,
  "tumblr": 3052,
  "tv": 2009,
  "tw": 299,
  "twee": 456,
  "tween": 2514,
  "tweet": 810,
  "tweetbot": 6020,
  "tweetdeck": 2120,
  "twimg": 337,
  "twitch": 2754,
  "twitter": 436,
  "twork": 6005,
  "ty": 389,
  "type": 416,
  "types": 6613,
  "tz": 7361,
  "u": 88,
  "uB": 7608,
  "uEm": 8321,
  "uK": 4591,
  "uM": 4947,
  "uMdq": 7532,
  "uMdqgjd": 7534,
  "uQ": 5621,
  "uU": 9062,
  "uUc": 7141,
  "uV": 9711,
  "uY": 7443,
  "ua": 6747,
  "ual": 1670,
  "ually": 1478,
  "uary": 1262,
  "uation": 5027,
  "ub": 1326,
  "ubb": 8749,
  "ube": 1384,
  "uber": 4851,
  "uble": 7535,
  "ublic": 6406,
  "uc": 1718,
  "uch": 1082,
  "uck": 1965,
  "uckily": 8364,
  "ucks": 6152,
  "ucky": 7887,
  "uct": 3113,
  "ud": 511,
  "udc": 1186,
  "udca": 3555,
  "udd": 1077,
  "udde": 2983,
  "uddec": 9855,
  "uddf": 3061,
  "ude": 1133,
  "udent": 5242,
  "udf": 1287,
  "udfa": 2944,
  "udfae": 3878,
  "udff": 2423,
  "udi": 1191,
  "udio": 1266,
  "ue": 382,
  "ueJh": 9757,
  "ueJhGR": 9766,
  "ued": 5651,
  "ueg": 2436,
  "uego": 7340,
  "uegos": 2773,
  "uel": 5745,
  "uer": 7713,
  "ues": 4443,
  "uette": 7450,
  "ufe": 1572,
  "uff": 1211,
  "ug": 900,
  "ugge": 3079,
  "ugged": 5839,
  "ugh": 4034,
  "ught": 5050,
  "ughter": 9830,
  "ugust": 1722,
  "uh": 8292,
  "uit": 2017,
  "uk": 1920,
  "uki": 5463,
  "ul": 424,
  "ular": 1429,
  "uld": 825,
  "ull": 297,
  "ully": 3809,
  "ulous": 3881,
  "ult": 512,
  "ulti": 4592,
  "ultimate": 6765,
  "uly": 1610,
  "um": 404,
  "umb": 581,
  "umber": 3683,
  "umbers": 5793,
  "umblr": 2959,
  "ume": 5924,
  "ummer": 2295,
  "ummy": 6260,
  "umn": 9701,
  "ump": 5286,
  "umps": 2186,
  "umpsuit": 2503,
  "un": 437,
  "unately": 4637,
  "unc": 719,
  "unce": 3489,
  "unced": 5932,
  "unch": 2936,
  "und": 367,
  "under": 6595,
  "unding": 6215,
  "undo": 9186,
  "unds": 7406,
  "une": 1535,
  "ung": 3960,
  "uni": 7580,
  "unk": 5992,
  "unning": 2438,
  "uns": 3155,
  "unt": 2794,
  "unte": 5794,
  "unted": 9167,
  "unter": 8494,
  "up": 621,
  "uper": 919,
  "upport": 5044,
  "ur": 283,
  "ura": 5230,
  "urai": 7550,
  "uration": 1613,
  "urch": 4081,
  "ure": 1081,
  "ured": 3263,
  "ures": 2412,
  "uring": 2396,
  "url": 300,
  "urls": 670,
  "urn": 1946,
  "uro": 914,
  "urope": 924,
  "urs": 5460,
  "us": 344,
  "usband": 3411,
  "use": 327,
  "used": 8938,
  "user": 355,
  "uses": 718,
  "ush": 1643,
  "usi": 1968,
  "usiast": 4068,
  "usic": 3680,
  "ust": 544,
  "usted": 6672,
  "ustin": 7166,
  "usto": 2239,
  "ustomer": 2275,
  "ustr": 3447,
  "ustralia": 7852,
  "ustrator": 7150,
  "ut": 361,
  "utant": 4727,
  "utc": 742,
  "utch": 8948,
  "ute": 1066,
  "uted": 9640,
  "uten": 3274,
  "utes": 4284,
  "ution": 6283,
  "utions": 6920,
  "utive": 7626,
  "utm": 3071,
  "uto": 4390,
  "uts": 4082,
  "utsch": 6815,
  "utschland": 9983,
  "uture": 3635,
  "uu": 5070,
  "uv": 3103,
  "uw": 5703,
  "ux": 2178,
  "uy": 1850,
  "uz": 6424,
  "v": 89,
  "vA": 3075,
  "vAk": 4287,
  "vF": 4187,
  "vH": 5036,
  "vHXDv": 6718,
  "vHXDvamAko": 6720,
  "vK": 6023,
  "vL": 7262,
  "vM": 5810,
  "vN": 7272,
  "vO": 5886,
  "vU": 7366,
  "vV": 7645,
  "vW": 7354,
  "vX": 6976,
  "vY": 4311,
  "vYQ": 7732,
  "vYQAzDC": 8893,
  "vZ": 4222,
  "vZq": 5239,
  "va": 953,
  "vacation": 3316,
  "vail": 2277,
  "vailable": 2335,
  "val": 2907,
  "valry": 4628,
  "vant": 3656,
  "vari": 1167,
  "variants": 1198,
  "vate": 8655,
  "ve": 431,
  "vec": 8285,
  "ved": 842,
  "vel": 706,
  "velo": 3002,
  "velous": 6914,
  "ven": 1054,
  "vengers": 8363,
  "vent": 1272,
  "venth": 9903,
  "vents": 3755,
  "venture": 8571,
  "venue": 8715,
  "ver": 465,
  "verage": 6075,
  "verall": 2254,
  "vercooked": 5252,
  "vered": 5097,
  "verified": 744,
  "vers": 2721,
  "verse": 2210,
  "versity": 5533,
  "very": 777,
  "ves": 1403,
  "vest": 2956,
  "vh": 5798,
  "vhd": 6997,
  "vi": 1135,
  "viant": 8329,
  "viantart": 8925,
  "vice": 6793,
  "vid": 959,
  "vida": 9735,
  "vide": 6137,
  "video": 469,
  "vie": 6755,
  "vies": 3750,
  "view": 3132,
  "ville": 3217,
  "vin": 8529,
  "ving": 1645,
  "vision": 3394,
  "vk": 9770,
  "vl": 6117,
  "vo": 2422,
  "voX": 9568,
  "vol": 2455,
  "vous": 5356,
  "vr": 8723,
  "vre": 5660,
  "vreP": 6026,
  "vs": 9545,
  "vt": 8309,
  "vy": 3575,
  "w": 90,
  "wC": 4703,
  "wQV": 3829,
  "wQVVb": 3838,
  "wS": 5476,
  "wW": 8424,
  "wY": 9597,
  "wa": 6625,
  "ward": 1945,
  "wards": 4689,
  "ware": 8310,
  "watch": 6451,
  "way": 1574,
  "ways": 2551,
  "wbk": 5956,
  "wd": 9171,
  "we": 601,
  "wear": 7002,
  "web": 1144,
  "wedding": 1005,
  "weight": 708,
  "wel": 5224,
  "wg": 5421,
  "wh": 2731,
  "what": 7006,
  "where": 3393,
  "which": 6667,
  "wide": 5417,
  "will": 9387,
  "wise": 3250,
  "witch": 817,
  "witchnews": 9466,
  "with": 7281,
  "wk": 8112,
  "wl": 4909,
  "wn": 3719,
  "wo": 6644,
  "wood": 7744,
  "word": 5668,
  "wordpress": 6157,
  "work": 1726,
  "ws": 3170,
  "wsf": 8554,
  "wsfnyGG": 9574,
  "wt": 9555,
  "wv": 3461,
  "wvWAAAg": 4492,
  "wvWAAAgOTl": 4495,
  "ww": 791,
  "www": 982,
  "wx": 8669,
  "wy": 5867,
  "wys": 9969,
  "x": 91,
  "xC": 5068,
  "xCTO": 7869,
  "xF": 6932,
  "xG": 4893,
  "xGt": 5826,
  "xM": 8915,
  "xR": 4754,
  "xU": 3213,
  "xUQu": 4565,
  "xY": 6744,
  "xi": 2491,
  "xico": 5983,
  "xjk": 7777,
  "xncjL": 3854,
  "xp": 2828,
  "xq": 7480,
  "xt": 349,
  "xtF": 2707,
  "xu": 6160,
  "xx": 4718,
  "xy": 1659,
  "xz": 5743,
  "y": 92,
  "yC": 9591,
  "yI": 9712,
  "yJp": 5833,
  "yR": 8073,
  "yU": 4766,
  "yY": 8224,
  "ya": 7666,
  "yal": 9203,
  "yd": 6197,
  "ye": 3725,
  "yf": 3570,
  "yfriend": 6403,
  "ying": 5653,
  "yn": 5516,
  "yno": 9845,
  "yo": 2400,
  "yojm": 6341,
  "yond": 7249,
  "youtube": 1753,
  "ys": 2723,
  "ysi": 6909,
  "ysk": 7427,
  "yskland": 8145,
  "yw": 4182,
  "ywHnM": 5614,
  "ywHnMfLu": 5615,
  "yy": 3398,
  "z": 93,
  "zB": 7158,
  "zGV": 5955,
  "zJ": 4989,
  "zK": 8558,
  "zS": 4560,
  "zVAAAa": 3938,
  "zW": 8804,
  "zX": 4986,
  "zZ": 6381,
  "za": 3686,
  "zard": 9503,
  "ze": 1855,
  "zed": 5775,
  "zer": 4436,
  "zes": 8670,
  "zg": 7741,
  "zi": 4278,
  "ziF": 8158,
  "zn": 5641,
  "zo": 3379,
  "zone": 736,
  "zr": 2763,
  "zrAPt": 9352,
  "zra": 2208,
  "zs": 7487,
  "zu": 5954,
  "zv": 4420,
  "zy": 3058,
  "zz": 4782,
  "{": 94,
  "{\"": 296,
  "{}": 6590,
  "|": 95,
  "||": 6432,
  "}": 96,
  "},\"": 575,
  "~": 97,
  "¡": 98,
  "¢": 99,
  "£": 100,
  "¤": 101,
  "¥": 102,
  "¦": 103,
  "§": 104,
  "¨": 105,
  "©": 106,
  "ª": 107,
  "«": 108,
  "¬": 109,
  "®": 110,
  "¯": 111,
  "°": 112,
  "±": 113,
  "²": 114,
  "³": 115,
  "´": 116,
  "µ": 117,
  "¶": 118,
  "·": 119,
  "¸": 120,
  "¹": 121,
  "º": 122,
  "»": 123,
  "¼": 124,
  "½": 125,
  "¾": 126,
  "¿": 127,
  "À": 128,
  "Á": 129,
  "Â": 130,
  "Ã": 131,
  "Ä": 132,
  "Å": 133,
  "Æ": 134,
  "Ç": 135,
  "È": 136,
  "É": 137,
  "Ê": 138,
  "Ë": 139,
  "Ì": 140,
  "Í": 141,
  "Î": 142,
  "Ï": 143,
  "Ð": 144,
  "Ñ": 145,
  "Ò": 146,
  "Ó": 147,
  "Ô": 148,
  "Õ": 149,
  "Ö": 150,
  "×": 151,
  "Ø": 152,
  "Ù": 153,
  "Ú": 154,
  "Û": 155,
  "Ü": 156,
  "Ý": 157,
  "Þ": 158,
  "ß": 159,
  "à": 160,
  "á": 161,
  "â": 162,
  "ã": 163,
  "ä": 164,
  "å": 165,
  "æ": 166,
  "ç": 167,
  "è": 168,
  "é": 169,
  "ê": 170,
  "ë": 171,
  "ì": 172,
  "í": 173,
  "î": 174,
  "ï": 175,
  "ð": 176,
  "ñ": 177,
  "ò": 178,
  "ó": 179,
  "ô": 180,
  "õ": 181,
  "ö": 182,
  "÷": 183,
  "ø": 184,
  "ù": 185,
  "ú": 186,
  "û": 187,
  "ü": 188,
  "ý": 189,
  "þ": 190,
  "ÿ": 191,
  "Ā": 192,
  "ā": 193,
  "Ă": 194,
  "ă": 195,
  "Ą": 196,
  "ą": 197,
  "Ć": 198,
  "ć": 199,
  "Ĉ": 200,
  "ĉ": 201,
  "Ċ": 202,
  "ċ": 203,
  "Č": 204,
  "č": 205,
  "čĊ": 548,
  "ččĊ": 827,
  "Ď": 206,
  "ď": 207,
  "Đ": 208,
  "đ": 209,
  "Ē": 210,
  "ē": 211,
  "Ĕ": 212,
  "ĕ": 213,
  "Ė": 214,
  "ė": 215,
  "Ę": 216,
  "ę": 217,
  "Ě": 218,
  "ě": 219,
  "Ĝ": 220,
  "ĝ": 221,
  "Ğ": 222,
  "ğ": 223,
  "Ġ": 224,
  "Ġ!": 2698,
  "Ġ!\\": 8299,
  "Ġ\"": 266,
  "Ġ\",": 808,
  "Ġ\",\"": 4784,
  "Ġ#": 491,
  "Ġ$": 1949,
  "Ġ%": 8760,
  "Ġ&": 1119,
  "Ġ'": 3375,
  "Ġ(": 939,
  "Ġ(#": 6184,
  "Ġ(\\": 6576,
  "Ġ*": 4899,
  "Ġ+": 527,
  "Ġ,": 6632,
  "Ġ-": 881,
  "Ġ--": 3986,
  "Ġ.": 3309,
  "Ġ0": 906,
  "Ġ00": 2868,
  "Ġ01": 2182,
  "Ġ02": 2262,
  "Ġ03": 2253,
  "Ġ04": 2404,
  "Ġ05": 2535,
  "Ġ06": 2715,
  "Ġ07": 2433,
  "Ġ08": 2866,
  "Ġ09": 2565,
  "Ġ1": 1114,
  "Ġ10": 1118,
  "Ġ100": 5790,
  "Ġ11": 1273,
  "Ġ12": 616,
  "Ġ13": 1367,
  "Ġ14": 1147,
  "Ġ15": 1431,
  "Ġ16": 620,
  "Ġ17": 1392,
  "Ġ18": 1157,
  "Ġ1861": 7829,
  "Ġ1862": 4069,
  "Ġ1863": 5803,
  "Ġ1864": 3069,
  "Ġ1865": 9216,
  "Ġ19": 1437,
  "Ġ2": 776,
  "Ġ20": 435,
  "Ġ2007": 4758,
  "Ġ2008": 3991,
  "Ġ2009": 1420,
  "Ġ2010": 2046,
  "Ġ2011": 1698,
  "Ġ2012": 1228,
  "Ġ2013": 1471,
  "Ġ2014": 1123,
  "Ġ2015": 1105,
  "Ġ2016": 964,
  "Ġ2017": 909,
  "Ġ2018": 696,
  "Ġ2019": 2470,
  "Ġ2020": 3196,
  "Ġ2021": 4387,
  "Ġ21": 1389,
  "Ġ22": 1485,
  "Ġ23": 1504,
  "Ġ24": 1464,
  "Ġ25": 1908,
  "Ġ26": 1981,
  "Ġ27": 2066,
  "Ġ28": 1733,
  "Ġ29": 1898,
  "Ġ3": 1091,
  "Ġ30": 1893,
  "Ġ31": 2048,
  "Ġ32": 3531,
  "Ġ33": 9234,
  "Ġ34": 3595,
  "Ġ35": 4818,
  "Ġ36": 4136,
  "Ġ37": 5506,
  "Ġ38": 4477,
  "Ġ39": 4815,
  "Ġ4": 823,
  "Ġ40": 6727,
  "Ġ45": 8514,
  "Ġ5": 944,
  "Ġ50": 9235,
  "Ġ6": 986,
  "Ġ7": 1146,
  "Ġ8": 884,
  "Ġ9": 1402,
  "Ġ90": 8016,
  "Ġ:": 1837,
  "Ġ:)": 5465,
  "Ġ:)\",": 5909,
  "Ġ;": 7202,
  "Ġ=": 8548,
  "Ġ?": 7129,
  "Ġ@": 803,
  "ĠA": 610,
  "ĠALL": 9581,
  "ĠAN": 5675,
  "ĠAND": 5414,
  "ĠANIMAL": 6987,
  "ĠARM": 9089,
  "ĠARMY": 9624,
  "ĠAU": 5466,
  "ĠAbout": 7966,
  "ĠAc": 5098,
  "ĠAccount": 6873,
  "ĠAct": 4342,
  "ĠActu": 7685,
  "ĠAd": 3227,
  "ĠAdjutant": 5498,
  "ĠAf": 4732,
  "ĠAfter": 6464,
  "ĠAgree": 9025,
  "ĠAgreement": 9754,
  "ĠAl": 4066,
  "ĠAll": 3891,
  "ĠAlso": 2512,
  "ĠAlthough": 8752,
  "ĠAm": 6540,
  "ĠAmbassador": 9947,
  "ĠAmerica": 6633,
  "ĠAn": 1878,
  "ĠAnd": 1070,
  "ĠAndroid": 1110,
  "ĠAnge": 3499,
  "ĠAngeles": 3565,
  "ĠAnimal": 3837,
  "ĠAnime": 5273,
  "ĠAny": 7631,
  "ĠApologies": 8181,
  "ĠApr": 2036,
  "ĠApril": 6630,
  "ĠAr": 2331,
  "ĠArmy": 5570,
  "ĠArt": 9330,
  "ĠArtist": 7722,
  "ĠAs": 3037,
  "ĠAssistant": 7674,
  "ĠAt": 3868,
  "ĠAug": 2245,
  "ĠAugust": 6966,
  "ĠB": 804,
  "ĠBACK": 6841,
  "ĠBR": 7611,
  "ĠBROS": 4830,
  "ĠBall": 4688,
  "ĠBar": 9372,
  "ĠBattle": 3814,
  "ĠBay": 8941,
  "ĠBe": 2458,
  "ĠBeautiful": 5986,
  "ĠBecause": 9226,
  "ĠBlack": 6943,
  "ĠBo": 3672,
  "ĠBoth": 9720,
  "ĠBra": 8975,
  "ĠBrigade": 9472,
  "ĠBrigadier": 5006,
  "ĠBro": 9499,
  "ĠBros": 1707,
  "ĠBus": 5315,
  "ĠBusiness": 9223,
  "ĠBut": 2576,
  "ĠBy": 8237,
  "ĠC": 619,
  "ĠCA": 2288,
  "ĠCEO": 8621,
  "ĠCH": 7330,
  "ĠCOM": 7148,
  "ĠCON": 7459,
  "ĠCROSS": 6466,
  "ĠCROSSING": 6642,
  "ĠCa": 5942,
  "ĠCaf": 9250,
  "ĠCalifornia": 8149,
  "ĠCan": 3818,
  "ĠCanada": 8324,
  "ĠCaptain": 3994,
  "ĠCar": 6931,
  "ĠCarol": 8144,
  "ĠCarolina": 8452,
  "ĠCavalry": 6702,
  "ĠCh": 1801,
  "ĠChar": 7372,
  "ĠCharac": 7742,
  "ĠCharacters": 9841,
  "ĠChe": 7930,
  "ĠChief": 8246,
  "ĠChrist": 6175,
  "ĠChristmas": 7373,
  "ĠCity": 4219,
  "ĠCl": 1058,
  "ĠClas": 8798,
  "ĠClient": 1071,
  "ĠCo": 1661,
  "ĠCol": 2520,
  "ĠColonel": 3494,
  "ĠColor": 7085,
  "ĠCom": 2117,
  "ĠComfortable": 6554,
  "ĠCommanding": 4275,
  "ĠComp": 2492,
  "ĠCompany": 2819,
  "ĠCon": 3594,
  "ĠCons": 8809,
  "ĠCont": 5376,
  "ĠCor": 4820,
  "ĠCorps": 7196,
  "ĠCount": 5115,
  "ĠCountry": 6191,
  "ĠCreek": 9214,
  "ĠCrossing": 3691,
  "ĠCur": 9200,
  "ĠD": 822,
  "ĠDE": 4147,
  "ĠDEAD": 9661,
  "ĠDEPARTMENT": 9960,
  "ĠDLC": 6061,
  "ĠDR": 7317,
  "ĠDRESS": 8607,
  "ĠDaisy": 5618,
  "ĠDay": 9705,
  "ĠDe": 1404,
  "ĠDec": 2609,
  "ĠDecember": 2960,
  "ĠDefinitely": 4174,
  "ĠDep": 6874,
  "ĠDepartment": 8385,
  "ĠDes": 5512,
  "ĠDesigner": 9831,
  "ĠDi": 5518,
  "ĠDirect": 4448,
  "ĠDis": 4747,
  "ĠDisney": 7999,
  "ĠDivision": 9954,
  "ĠDo": 5731,
  "ĠDon": 4211,
  "ĠDonk": 9511,
  "ĠDornbush": 5952,
  "ĠDragon": 7322,
  "ĠDress": 2809,
  "ĠE": 795,
  "ĠEVERY": 6115,
  "ĠEVERYONE": 9002,
  "ĠEcho": 5556,
  "ĠEditor": 6438,
  "ĠEl": 8588,
  "ĠElectronic": 4862,
  "ĠEmblem": 5117,
  "ĠEn": 3311,
  "ĠEnd": 7759,
  "ĠEng": 3649,
  "ĠEngland": 5764,
  "ĠEntertainment": 4569,
  "ĠEnthusiast": 8581,
  "ĠEs": 2397,
  "ĠEspa": 2745,
  "ĠEurope": 1463,
  "ĠEuropean": 2661,
  "ĠEven": 5902,
  "ĠEvery": 1818,
  "ĠEveryone": 3328,
  "ĠEx": 2746,
  "ĠExpo": 4805,
  "ĠF": 778,
  "ĠFC": 7371,
  "ĠFL": 8776,
  "ĠFOR": 4649,
  "ĠFR": 7304,
  "ĠFan": 4742,
  "ĠFant": 6274,
  "ĠFantasy": 6738,
  "ĠFeb": 1322,
  "ĠFebruary": 7346,
  "ĠFelt": 9649,
  "ĠFighter": 5687,
  "ĠFighters": 7269,
  "ĠFin": 5724,
  "ĠFinal": 5760,
  "ĠFire": 5720,
  "ĠFirst": 5462,
  "ĠFit": 4177,
  "ĠFo": 9290,
  "ĠFollow": 3108,
  "ĠFor": 2292,
  "ĠForm": 7603,
  "ĠFormerly": 8943,
  "ĠFort": 5350,
  "ĠFortnite": 5259,
  "ĠFran": 4571,
  "ĠFrance": 2572,
  "ĠFrancis": 5906,
  "ĠFrancisco": 6085,
  "ĠFun": 7642,
  "ĠG": 867,
  "ĠGAME": 9107,
  "ĠGO": 9450,
  "ĠGR": 7657,
  "ĠGame": 3419,
  "ĠGameCube": 8054,
  "ĠGamer": 3681,
  "ĠGames": 4024,
  "ĠGaming": 5751,
  "ĠGe": 8534,
  "ĠGeneral": 2244,
  "ĠGet": 9451,
  "ĠGo": 4484,
  "ĠGold": 5553,
  "ĠGolden": 6292,
  "ĠGood": 8596,
  "ĠGot": 4248,
  "ĠGovern": 8328,
  "ĠGr": 9336,
  "ĠGre": 9871,
  "ĠGreat": 2912,
  "ĠGu": 9565,
  "ĠH": 917,
  "ĠHEADQUARTERS": 8159,
  "ĠHERE": 9638,
  "ĠHY": 8950,
  "ĠHYPE": 9614,
  "ĠHad": 9281,
  "ĠHar": 6859,
  "ĠHave": 7120,
  "ĠHe": 2631,
  "ĠHear": 7149,
  "ĠHearts": 7587,
  "ĠHer": 8482,
  "ĠHigh": 4755,
  "ĠHighly": 6069,
  "ĠHill": 9157,
  "ĠHirai": 7479,
  "ĠHo": 2680,
  "ĠHouses": 3866,
  "ĠHow": 3253,
  "ĠHowever": 3538,
  "ĠI": 401,
  "ĠID": 9535,
  "ĠIL": 6382,
  "ĠIN": 3929,
  "ĠIS": 3035,
  "ĠIT": 5238,
  "ĠIcon": 7285,
  "ĠIf": 2032,
  "ĠIll": 7572,
  "ĠIn": 1522,
  "ĠInc": 8559,
  "ĠInd": 5137,
  "ĠInfantry": 8661,
  "ĠInfinity": 6712,
  "ĠIntro": 7375,
  "ĠIntroducing": 7649,
  "ĠIs": 5126,
  "ĠIsland": 7069,
  "ĠIt": 891,
  "ĠIts": 9401,
  "ĠJ": 596,
  "ĠJack": 9369,
  "ĠJames": 9220,
  "ĠJan": 1628,
  "ĠJanuary": 4490,
  "ĠJe": 8704,
  "ĠJin": 7575,
  "ĠJohn": 9421,
  "ĠJul": 2049,
  "ĠJuly": 5538,
  "ĠJun": 679,
  "ĠJune": 4824,
  "ĠJust": 5433,
  "ĠK": 1280,
  "ĠKaz": 7349,
  "ĠKing": 2854,
  "ĠKingdom": 3001,
  "ĠKnight": 9543,
  "ĠL": 879,
  "ĠLBD": 7055,
  "ĠLOVE": 3194,
  "ĠLOVED": 4711,
  "ĠLa": 6105,
  "ĠLe": 3474,
  "ĠLength": 9931,
  "ĠLet": 5333,
  "ĠLi": 5580,
  "ĠLieutenant": 4183,
  "ĠLike": 9189,
  "ĠLink": 5206,
  "ĠLinks": 8930,
  "ĠLite": 5977,
  "ĠLive": 7891,
  "ĠLo": 2019,
  "ĠLong": 7446,
  "ĠLots": 7530,
  "ĠLou": 8079,
  "ĠLove": 3992,
  "ĠLoved": 3189,
  "ĠLover": 6562,
  "ĠM": 717,
  "ĠMA": 5332,
  "ĠMAR": 5895,
  "ĠMARIO": 6894,
  "ĠME": 9704,
  "ĠMY": 6956,
  "ĠMa": 3480,
  "ĠMajor": 3368,
  "ĠMalos": 9035,
  "ĠMan": 4330,
  "ĠMar": 1442,
  "ĠMarch": 6949,
  "ĠMari": 6835,
  "ĠMaria": 8345,
  "ĠMario": 3094,
  "ĠMarvel": 6462,
  "ĠMay": 1805,
  "ĠMc": 6486,
  "ĠMe": 2360,
  "ĠMedi": 6688,
  "ĠMedia": 7563,
  "ĠMer": 9031,
  "ĠMet": 5499,
  "ĠMetroid": 7123,
  "ĠMew": 5586,
  "ĠMis": 8674,
  "ĠMiss": 7815,
  "ĠMissouri": 9813,
  "ĠMo": 3509,
  "ĠMon": 8795,
  "ĠMor": 9722,
  "ĠMr": 8974,
  "ĠMs": 8009,
  "ĠMsDBZbabe": 8561,
  "ĠMy": 1948,
  "ĠMyth": 6415,
  "ĠMythra": 7660,
  "ĠN": 908,
  "ĠNINTENDO": 8460,
  "ĠNO": 6627,
  "ĠNOT": 8542,
  "ĠNY": 3518,
  "ĠNYC": 9296,
  "ĠNYE": 7488,
  "ĠNe": 5142,
  "ĠNew": 2515,
  "ĠNews": 5201,
  "ĠNintendo": 1145,
  "ĠNo": 1527,
  "ĠNor": 9363,
  "ĠNot": 4085,
  "ĠNoti": 5448,
  "ĠNotifications": 6042,
  "ĠNous": 7730,
  "ĠNov": 2414,
  "ĠNovember": 8273,
  "ĠNumbers": 9195,
  "ĠO": 873,
  "ĠOF": 4418,
  "ĠOFF": 8448,
  "ĠON": 6278,
  "ĠOct": 2008,
  "ĠOctober": 5195,
  "ĠOffi": 9609,
  "ĠOfficial": 4792,
  "ĠOh": 7012,
  "ĠOn": 2987,
  "ĠOne": 4317,
  "ĠOnly": 6339,
  "ĠOr": 5529,
  "ĠOther": 3644,
  "ĠOtherwise": 6607,
  "ĠOur": 2278,
  "ĠOverall": 2557,
  "ĠP": 821,
  "ĠPAR": 9415,
  "ĠPERFECT": 8508,
  "ĠPL": 9718,
  "ĠPR": 9388,
  "ĠPS": 9907,
  "ĠPSN": 8773,
  "ĠPa": 7096,
  "ĠPart": 7185,
  "ĠParty": 3022,
  "ĠPe": 5380,
  "ĠPeach": 8046,
  "ĠPer": 8313,
  "ĠPerfect": 3404,
  "ĠPhoto": 9500,
  "ĠPikachu": 7511,
  "ĠPl": 2915,
  "ĠPlan": 8725,
  "ĠPlay": 3645,
  "ĠPlus": 9114,
  "ĠPo": 2874,
  "ĠPod": 9239,
  "ĠPok": 3224,
  "ĠPokemon": 5318,
  "ĠPr": 4965,
  "ĠPri": 5625,
  "ĠPro": 3000,
  "ĠPurch": 7963,
  "ĠPurchasing": 9800,
  "ĠQu": 8095,
  "ĠR": 841,
  "ĠRT": 9587,
  "ĠRTR": 1786,
  "ĠRe": 1546,
  "ĠReally": 9193,
  "ĠReceived": 5321,
  "ĠRed": 7399,
  "ĠReg": 5704,
  "ĠRegiment": 9321,
  "ĠRemake": 6986,
  "ĠRent": 5241,
  "ĠRep": 5292,
  "ĠReport": 6116,
  "ĠReview": 4463,
  "ĠRidley": 3867,
  "ĠRiver": 6040,
  "ĠRo": 4201,
  "ĠRoster": 6552,
  "ĠRoy": 4343,
  "ĠRoyale": 4683,
  "ĠRun": 4536,
  "ĠRuns": 8909,
  "ĠRunway": 6431,
  "ĠS": 567,
  "ĠSH": 7105,
  "ĠSMASH": 3699,
  "ĠSNA": 7066,
  "ĠSNAKE": 7218,
  "ĠSO": 4213,
  "ĠST": 5187,
  "ĠSUPER": 8189,
  "ĠSW": 5244,
  "ĠSWITCH": 9572,
  "ĠSch": 8900,
  "ĠSco": 9377,
  "ĠSe": 2816,
  "ĠSecond": 7080,
  "ĠSent": 6620,
  "ĠSentimos": 6884,
  "ĠSep": 2411,
  "ĠSeptember": 6336,
  "ĠSer": 5345,
  "ĠSh": 3207,
  "ĠShe": 4101,
  "ĠSho": 9335,
  "ĠSince": 8901,
  "ĠSmall": 9902,
  "ĠSmash": 1385,
  "ĠSmashes": 9567,
  "ĠSmith": 8986,
  "ĠSnake": 4769,
  "ĠSnappyTV": 3627,
  "ĠSo": 2443,
  "ĠSome": 6461,
  "ĠSonic": 7439,
  "ĠSouth": 7153,
  "ĠSp": 6029,
  "ĠSpanx": 7087,
  "ĠSpe": 9618,
  "ĠSplatoon": 8611,
  "ĠSpring": 8636,
  "ĠSqu": 5183,
  "ĠSt": 1258,
  "ĠSta": 9602,
  "ĠStar": 8676,
  "ĠState": 5559,
  "ĠStates": 4097,
  "ĠSte": 7084,
  "ĠStill": 8272,
  "ĠStock": 7599,
  "ĠStr": 9673,
  "ĠStreamer": 9103,
  "ĠStudio": 1841,
  "ĠSu": 5755,
  "ĠSuivez": 7892,
  "ĠSuper": 1229,
  "ĠSupport": 9519,
  "ĠSw": 7844,
  "ĠSwitch": 1481,
  "ĠT": 565,
  "ĠTH": 2418,
  "ĠTHE": 3949,
  "ĠTHIS": 6419,
  "ĠTO": 5579,
  "ĠTV": 4274,
  "ĠTX": 5818,
  "ĠTe": 4228,
  "ĠTeam": 9460,
  "ĠTech": 7503,
  "ĠTenn": 7277,
  "ĠTexas": 8257,
  "ĠTh": 1142,
  "ĠThank": 8265,
  "ĠThanks": 9530,
  "ĠThat": 4345,
  "ĠThe": 773,
  "ĠThere": 3077,
  "ĠThese": 7401,
  "ĠThey": 3900,
  "ĠThird": 9406,
  "ĠThis": 1446,
  "ĠTho": 6684,
  "ĠThree": 3718,
  "ĠTo": 4240,
  "ĠTorna": 6821,
  "ĠTr": 5648,
  "ĠTra": 4373,
  "ĠTrainer": 9732,
  "ĠTurn": 5922,
  "ĠTw": 1441,
  "ĠTweets": 6865,
  "ĠTwitch": 6007,
  "ĠTwitter": 1577,
  "ĠU": 933,
  "ĠUK": 2257,
  "ĠULTIMATE": 6044,
  "ĠUS": 4836,
  "ĠUSA": 2596,
  "ĠUltimate": 1325,
  "ĠUn": 2753,
  "ĠUnfortunately": 8430,
  "ĠUni": 4288,
  "ĠUnited": 5108,
  "ĠUniverse": 7217,
  "ĠUniversity": 7831,
  "ĠV": 1115,
  "ĠVERY": 6996,
  "ĠVII": 7980,
  "ĠVal": 9589,
  "ĠVe": 9639,
  "ĠVegas": 5222,
  "ĠVers": 6413,
  "ĠVersus": 6940,
  "ĠVery": 2508,
  "ĠVideo": 4670,
  "ĠVolunte": 6785,
  "ĠVolunteers": 7737,
  "ĠW": 782,
  "ĠWH": 9385,
  "ĠWar": 2920,
  "ĠWas": 5436,
  "ĠWashington": 8744,
  "ĠWe": 2303,
  "ĠWeb": 1065,
  "ĠWh": 2667,
  "ĠWhat": 8578,
  "ĠWhen": 5419,
  "ĠWhile": 7977,
  "ĠWho": 7877,
  "ĠWill": 4412,
  "ĠWish": 9237,
  "ĠWith": 5544,
  "ĠWo": 2575,
  "ĠWore": 4380,
  "ĠWork": 9465,
  "ĠWorld": 9441,
  "ĠWould": 2824,
  "ĠWrestling": 6724,
  "ĠWriter": 8244,
  "ĠX": 2513,
  "ĠXS": 4749,
  "ĠXenoblade": 9469,
  "ĠY": 1284,
  "ĠYOU": 7237,
  "ĠYear": 6233,
  "ĠYork": 3775,
  "ĠYou": 2251,
  "ĠYouTube": 6234,
  "ĠYour": 9124,
  "ĠYoutuber": 9932,
  "ĠZ": 3889,
  "ĠZelda": 5716,
  "Ġ[": 1291,
  "Ġ[{\"": 6714,
  "Ġ\\": 677,
  "Ġ\\\"": 1756,
  "Ġ\\/": 2041,
  "Ġ\\/\\/": 2786,
  "Ġ]": 1769,
  "Ġ],": 3039,
  "Ġa": 306,
  "Ġab": 8957,
  "Ġability": 6933,
  "Ġable": 1532,
  "Ġabo": 3133,
  "Ġabout": 1234,
  "Ġabove": 3168,
  "Ġabsolutely": 2264,
  "Ġac": 1324,
  "Ġacce": 8096,
  "Ġaccent": 6414,
  "Ġaccentu": 7206,
  "Ġaccess": 4359,
  "Ġaccessories": 6695,
  "Ġaccom": 5845,
  "Ġaccord": 7659,
  "Ġaccount": 4202,
  "Ġacqu": 4898,
  "Ġacquis": 7536,
  "Ġacquisition": 9786,
  "Ġacross": 4627,
  "Ġact": 2194,
  "Ġaction": 7548,
  "Ġactiv": 7862,
  "Ġactual": 8666,
  "Ġactually": 2803,
  "Ġad": 1282,
  "Ġadd": 2977,
  "Ġadded": 4915,
  "Ġaddition": 6250,
  "Ġadditional": 6390,
  "Ġadjust": 5211,
  "Ġadorable": 8647,
  "Ġadv": 4413,
  "Ġadvance": 6809,
  "Ġadverse": 6880,
  "Ġadversely": 9554,
  "Ġaf": 1017,
  "Ġaffair": 1104,
  "Ġaffect": 8407,
  "Ġaffiliate": 9078,
  "Ġafter": 2113,
  "Ġafternoon": 9683,
  "Ġag": 1152,
  "Ġagain": 1212,
  "Ġagainst": 5192,
  "Ġagree": 5920,
  "Ġal": 1301,
  "Ġalerts": 9247,
  "Ġall": 993,
  "Ġallow": 4200,
  "Ġallowed": 8456,
  "Ġalmost": 3462,
  "Ġalong": 6508,
  "Ġalready": 5469,
  "Ġalso": 1459,
  "Ġalthough": 4863,
  "Ġalways": 3454,
  "Ġam": 1093,
  "Ġamazing": 1964,
  "Ġamb": 3639,
  "Ġambitious": 3945,
  "Ġamong": 8420,
  "Ġamount": 3693,
  "Ġan": 854,
  "Ġand": 425,
  "Ġanim": 9138,
  "Ġanimal": 4396,
  "Ġanime": 3182,
  "Ġank": 8764,
  "Ġann": 5557,
  "Ġanno": 2664,
  "Ġannounce": 3667,
  "Ġannounced": 6488,
  "Ġannouncements": 4658,
  "Ġanother": 2694,
  "Ġans": 9357,
  "Ġant": 6252,
  "Ġanticip": 8547,
  "Ġany": 1283,
  "Ġanyone": 4441,
  "Ġanything": 3706,
  "Ġanyway": 9176,
  "Ġap": 1682,
  "Ġapologies": 2727,
  "Ġappear": 5769,
  "Ġappears": 9744,
  "Ġappro": 2640,
  "Ġapproach": 9000,
  "Ġappropriate": 3473,
  "Ġar": 1170,
  "Ġare": 974,
  "Ġarea": 2179,
  "Ġareas": 6807,
  "Ġarm": 4870,
  "Ġarms": 2090,
  "Ġarmy": 6934,
  "Ġaround": 1730,
  "Ġarrange": 9259,
  "Ġarri": 2917,
  "Ġarrived": 4307,
  "Ġart": 5060,
  "Ġartillery": 5999,
  "Ġartist": 6326,
  "Ġas": 875,
  "Ġasked": 8592,
  "Ġass": 7998,
  "Ġasset": 3941,
  "Ġassets": 4511,
  "Ġassi": 4861,
  "Ġasso": 9482,
  "Ġat": 898,
  "Ġathletic": 7303,
  "Ġatta": 3732,
  "Ġattack": 4245,
  "Ġattacks": 8076,
  "Ġattemp": 9422,
  "Ġattend": 7171,
  "Ġattended": 6816,
  "Ġattention": 5964,
  "Ġau": 3209,
  "Ġauf": 7691,
  "Ġaus": 7408,
  "Ġauthor": 6941,
  "Ġav": 9887,
  "Ġavailable": 2553,
  "Ġavec": 9184,
  "Ġaverage": 8383,
  "Ġavo": 9404,
  "Ġaw": 2605,
  "Ġawards": 9599,
  "Ġaware": 8962,
  "Ġaway": 3628,
  "Ġawesome": 3751,
  "Ġawkward": 7441,
  "Ġb": 379,
  "Ġba": 1180,
  "Ġbaby": 5130,
  "Ġbachelorette": 5336,
  "Ġback": 1057,
  "Ġbackless": 8287,
  "Ġbackup": 2549,
  "Ġbad": 4171,
  "Ġbag": 8622,
  "Ġbagg": 5981,
  "Ġbaggy": 6404,
  "Ġbalance": 8384,
  "Ġball": 5018,
  "Ġband": 6013,
  "Ġbar": 6360,
  "Ġbarely": 6903,
  "Ġbased": 3534,
  "Ġbasis": 9687,
  "Ġbatter": 4853,
  "Ġbattery": 6446,
  "Ġbattle": 2071,
  "Ġbe": 580,
  "Ġbeach": 8497,
  "Ġbeautiful": 1300,
  "Ġbeautifully": 4356,
  "Ġbecause": 1223,
  "Ġbecome": 8908,
  "Ġbeen": 1525,
  "Ġbefore": 2755,
  "Ġbeh": 9043,
  "Ġbeing": 1409,
  "Ġbelie": 4902,
  "Ġbelieve": 5739,
  "Ġbelly": 7147,
  "Ġbelow": 4230,
  "Ġbelt": 4452,
  "Ġbene": 7351,
  "Ġbenefit": 8388,
  "Ġbest": 2460,
  "Ġbetter": 2069,
  "Ġbetween": 2614,
  "Ġbeyond": 8082,
  "Ġbig": 1433,
  "Ġbigger": 3974,
  "Ġbirthday": 3952,
  "Ġbit": 1185,
  "Ġblack": 1564,
  "Ġblazer": 7824,
  "Ġblo": 5371,
  "Ġblue": 3603,
  "Ġbo": 1173,
  "Ġbodice": 6628,
  "Ġbody": 2173,
  "Ġbon": 5243,
  "Ġboning": 8971,
  "Ġboo": 3433,
  "Ġboobs": 6439,
  "Ġboots": 7248,
  "Ġbot": 2420,
  "Ġboth": 2497,
  "Ġbother": 8275,
  "Ġbottom": 2573,
  "Ġbought": 8524,
  "Ġboxy": 9657,
  "Ġboyfriend": 6447,
  "Ġbr": 1745,
  "Ġbra": 1206,
  "Ġbrand": 4845,
  "Ġbre": 4135,
  "Ġbreak": 7448,
  "Ġbreast": 7953,
  "Ġbreat": 5979,
  "Ġbreath": 8270,
  "Ġbrid": 3043,
  "Ġbridal": 4738,
  "Ġbride": 9026,
  "Ġbrides": 9187,
  "Ġbridge": 8203,
  "Ġbrigade": 5571,
  "Ġbright": 4430,
  "Ġbring": 6899,
  "Ġbro": 3554,
  "Ġbroad": 6942,
  "Ġbrought": 7579,
  "Ġbrunch": 8781,
  "Ġbu": 4017,
  "Ġbucks": 8029,
  "Ġbuild": 6235,
  "Ġbuilt": 8851,
  "Ġbul": 7906,
  "Ġbump": 8645,
  "Ġbunch": 6281,
  "Ġbus": 2677,
  "Ġbusiness": 3118,
  "Ġbust": 1178,
  "Ġbusty": 5937,
  "Ġbut": 691,
  "Ġbutt": 4957,
  "Ġbutton": 8177,
  "Ġbuy": 3187,
  "Ġbuying": 9409,
  "Ġby": 1127,
  "Ġc": 612,
  "Ġca": 1311,
  "Ġcage": 6864,
  "Ġcal": 4951,
  "Ġcall": 9197,
  "Ġcalled": 7023,
  "Ġcame": 3179,
  "Ġcamp": 5254,
  "Ġcan": 1252,
  "Ġcannot": 5220,
  "Ġcap": 5471,
  "Ġcapital": 9170,
  "Ġcapt": 5431,
  "Ġcaptured": 8801,
  "Ġcar": 2952,
  "Ġcare": 8699,
  "Ġcaref": 6269,
  "Ġcareful": 7082,
  "Ġcarry": 6120,
  "Ġcase": 5031,
  "Ġcash": 4865,
  "Ġcast": 8593,
  "Ġcasual": 3383,
  "Ġcause": 5523,
  "Ġcavalry": 4677,
  "Ġce": 3399,
  "Ġcele": 9222,
  "Ġceremony": 9240,
  "Ġcertain": 4160,
  "Ġch": 1124,
  "Ġchal": 8326,
  "Ġchange": 3623,
  "Ġchanges": 7460,
  "Ġchannel": 9923,
  "Ġchar": 8128,
  "Ġcharac": 3638,
  "Ġcharacter": 4556,
  "Ġcharacters": 8736,
  "Ġcharge": 5633,
  "Ġcharity": 9926,
  "Ġche": 1677,
  "Ġcheck": 8882,
  "Ġchest": 1897,
  "Ġchested": 6705,
  "Ġchic": 5996,
  "Ġchoice": 3877,
  "Ġchoose": 9913,
  "Ġchose": 5028,
  "Ġchurch": 9730,
  "Ġcine": 8362,
  "Ġcir": 8493,
  "Ġcity": 8084,
  "Ġcl": 4841,
  "Ġcla": 7662,
  "Ġclas": 1868,
  "Ġclassic": 4188,
  "Ġclassy": 2372,
  "Ġcle": 3275,
  "Ġclear": 9308,
  "Ġcleavage": 4840,
  "Ġclo": 2737,
  "Ġclose": 5428,
  "Ġco": 1026,
  "Ġcoat": 7656,
  "Ġcocktail": 5477,
  "Ġcol": 2649,
  "Ġcold": 6928,
  "Ġcolle": 7856,
  "Ġcollect": 7882,
  "Ġcolor": 1092,
  "Ġcolors": 3186,
  "Ġcom": 618,
  "Ġcomb": 4527,
  "Ġcomba": 7938,
  "Ġcombate": 9764,
  "Ġcombatt": 7842,
  "Ġcome": 2635,
  "Ġcomes": 4009,
  "Ġcomfort": 4239,
  "Ġcomfortable": 1015,
  "Ġcomfortably": 6811,
  "Ġcomfy": 3609,
  "Ġcomics": 8922,
  "Ġcoming": 3206,
  "Ġcommand": 2212,
  "Ġcommanding": 4620,
  "Ġcommen": 8116,
  "Ġcommon": 4720,
  "Ġcommun": 3005,
  "Ġcommuni": 7913,
  "Ġcommunication": 9646,
  "Ġcommunity": 4148,
  "Ġcomo": 9440,
  "Ġcomp": 3876,
  "Ġcompan": 3202,
  "Ġcompanies": 5753,
  "Ġcompany": 4561,
  "Ġcompensation": 7883,
  "Ġcompet": 5502,
  "Ġcompetitive": 7634,
  "Ġcompl": 945,
  "Ġcomplain": 7971,
  "Ġcomplaint": 5536,
  "Ġcomple": 2334,
  "Ġcomplements": 5595,
  "Ġcomplete": 5494,
  "Ġcompletely": 6402,
  "Ġcompliment": 7298,
  "Ġcomplimented": 7358,
  "Ġcompliments": 983,
  "Ġcon": 1050,
  "Ġconcer": 4634,
  "Ġconcerned": 8110,
  "Ġconcours": 7795,
  "Ġcond": 3472,
  "Ġcondition": 4907,
  "Ġconfi": 3422,
  "Ġconfident": 6420,
  "Ġconfir": 5881,
  "Ġconfirmed": 8043,
  "Ġconne": 7682,
  "Ġcons": 2361,
  "Ġconservative": 4621,
  "Ġconsider": 3666,
  "Ġconsolidated": 7116,
  "Ġconstant": 8343,
  "Ġconstantly": 9698,
  "Ġconstru": 9803,
  "Ġcont": 1815,
  "Ġcontain": 6285,
  "Ġcontent": 9598,
  "Ġcontin": 4141,
  "Ġcontinue": 7134,
  "Ġcontra": 4562,
  "Ġcontract": 7725,
  "Ġcontrol": 4544,
  "Ġconver": 7270,
  "Ġcoo": 9282,
  "Ġcool": 3962,
  "Ġcor": 3413,
  "Ġcos": 8441,
  "Ġcost": 7093,
  "Ġcosts": 5444,
  "Ġcou": 1128,
  "Ġcould": 1155,
  "Ġcouldn": 2937,
  "Ġcount": 8520,
  "Ġcountry": 6696,
  "Ġcouple": 6961,
  "Ġcour": 5287,
  "Ġcourse": 7416,
  "Ġcover": 4076,
  "Ġcoverage": 9140,
  "Ġcovered": 5998,
  "Ġcr": 6635,
  "Ġcra": 7400,
  "Ġcrazy": 9693,
  "Ġcre": 2996,
  "Ġcredit": 7788,
  "Ġcross": 3031,
  "Ġcrossed": 9930,
  "Ġcrossing": 3762,
  "Ġcrossover": 3569,
  "Ġcry": 9669,
  "Ġcult": 6203,
  "Ġculture": 7403,
  "Ġcup": 4746,
  "Ġcur": 1938,
  "Ġcurrent": 5479,
  "Ġcurves": 3357,
  "Ġcurvy": 5160,
  "Ġcustomer": 2398,
  "Ġcustomers": 3934,
  "Ġcut": 1778,
  "Ġcute": 1936,
  "Ġcuto": 6080,
  "Ġcutouts": 9029,
  "Ġd": 386,
  "Ġda": 4643,
  "Ġdam": 4383,
  "Ġdamage": 6945,
  "Ġdance": 2570,
  "Ġdancing": 2888,
  "Ġdans": 3967,
  "Ġdark": 5009,
  "Ġdata": 6127,
  "Ġdate": 3131,
  "Ġday": 1545,
  "Ġdays": 4528,
  "Ġdaytime": 8454,
  "Ġde": 769,
  "Ġdeal": 7075,
  "Ġdeals": 8675,
  "Ġdec": 4166,
  "Ġdecided": 5109,
  "Ġdeep": 5774,
  "Ġdef": 5865,
  "Ġdefin": 9215,
  "Ġdefinitely": 1309,
  "Ġdel": 2618,
  "Ġdelay": 9125,
  "Ġdeli": 7912,
  "Ġdem": 8322,
  "Ġden": 9346,
  "Ġdep": 6905,
  "Ġdepend": 5583,
  "Ġdepending": 7954,
  "Ġder": 4713,
  "Ġdes": 1772,
  "Ġdesc": 7329,
  "Ġdesign": 3337,
  "Ġdesigned": 9399,
  "Ġdesigner": 5823,
  "Ġdest": 5394,
  "Ġdestination": 8980,
  "Ġdeta": 2133,
  "Ġdetail": 3097,
  "Ġdetailing": 8859,
  "Ġdetails": 4626,
  "Ġdeter": 5880,
  "Ġdetermin": 8185,
  "Ġdevelo": 4602,
  "Ġdevelop": 5691,
  "Ġdevelopment": 7711,
  "Ġdi": 1151,
  "Ġdid": 1008,
  "Ġdidn": 1235,
  "Ġdie": 5551,
  "Ġdiffe": 2542,
  "Ġdifference": 9593,
  "Ġdifferent": 2815,
  "Ġdiffic": 3923,
  "Ġdifficult": 4535,
  "Ġdinner": 2405,
  "Ġdire": 2625,
  "Ġdirect": 4037,
  "Ġdirected": 8988,
  "Ġdirection": 7413,
  "Ġdis": 1754,
  "Ġdisappo": 5172,
  "Ġdisappoint": 9461,
  "Ġdisappointed": 7644,
  "Ġdisco": 8399,
  "Ġdisp": 7219,
  "Ġdispatch": 7941,
  "Ġdispon": 7627,
  "Ġdisponible": 7921,
  "Ġdivision": 6631,
  "Ġdo": 1208,
  "Ġdoes": 1997,
  "Ġdoesn": 3655,
  "Ġdoing": 7620,
  "Ġdon": 1901,
  "Ġdone": 5411,
  "Ġdou": 4897,
  "Ġdouble": 7223,
  "Ġdown": 1435,
  "Ġdra": 3334,
  "Ġdrag": 6579,
  "Ġdraw": 5982,
  "Ġdream": 9087,
  "Ġdres": 1717,
  "Ġdress": 515,
  "Ġdressed": 4376,
  "Ġdresses": 1983,
  "Ġdressy": 8418,
  "Ġdri": 6400,
  "Ġdrink": 7841,
  "Ġdrop": 8188,
  "Ġdu": 5188,
  "Ġdue": 3333,
  "Ġduring": 3408,
  "Ġdut": 6491,
  "Ġduty": 7796,
  "Ġe": 593,
  "Ġeach": 5025,
  "Ġear": 2972,
  "Ġearly": 7221,
  "Ġearrings": 5099,
  "Ġeasi": 3677,
  "Ġeasily": 4142,
  "Ġeasy": 2176,
  "Ġeat": 8196,
  "Ġed": 5710,
  "Ġeffe": 3621,
  "Ġeffect": 5730,
  "Ġeffective": 8165,
  "Ġeffort": 7063,
  "Ġein": 8025,
  "Ġeither": 4306,
  "Ġel": 2261,
  "Ġele": 8665,
  "Ġelegant": 2688,
  "Ġelse": 3884,
  "Ġem": 3940,
  "Ġemail": 5589,
  "Ġemb": 8450,
  "Ġemp": 9520,
  "Ġemploy": 5100,
  "Ġemployees": 8771,
  "Ġen": 995,
  "Ġend": 1413,
  "Ġended": 1860,
  "Ġene": 2562,
  "Ġenemy": 2604,
  "Ġeng": 3252,
  "Ġengaged": 9812,
  "Ġengagement": 5263,
  "Ġenjoy": 4004,
  "Ġenjoyed": 8061,
  "Ġenough": 1839,
  "Ġent": 2487,
  "Ġenth": 5094,
  "Ġenthusiast": 5505,
  "Ġentire": 3999,
  "Ġentirely": 9410,
  "Ġequ": 4259,
  "Ġequip": 9816,
  "Ġer": 6801,
  "Ġes": 2103,
  "Ġesc": 4829,
  "Ġescuch": 6523,
  "Ġescuchamos": 6895,
  "Ġespecially": 3662,
  "Ġest": 2612,
  "Ġesta": 6927,
  "Ġestim": 7114,
  "Ġet": 2602,
  "Ġetc": 7036,
  "Ġeven": 1330,
  "Ġevening": 2855,
  "Ġevent": 1408,
  "Ġevents": 4263,
  "Ġever": 3464,
  "Ġevery": 1356,
  "Ġeveryday": 7070,
  "Ġeveryone": 3558,
  "Ġeverything": 2899,
  "Ġeverywhere": 6459,
  "Ġex": 1165,
  "Ġexact": 5860,
  "Ġexactly": 6828,
  "Ġexc": 5113,
  "Ġexce": 3226,
  "Ġexcellent": 9285,
  "Ġexcept": 5178,
  "Ġexchange": 9872,
  "Ġexcited": 6264,
  "Ġexcl": 5335,
  "Ġexclusi": 5767,
  "Ġexclusive": 7162,
  "Ġexec": 8184,
  "Ġexist": 6444,
  "Ġexisting": 9303,
  "Ġexp": 1711,
  "Ġexpe": 2769,
  "Ġexpect": 4168,
  "Ġexpected": 3109,
  "Ġexpecting": 8701,
  "Ġexpen": 3651,
  "Ġexpense": 7241,
  "Ġexpenses": 6845,
  "Ġexper": 2558,
  "Ġexperien": 2647,
  "Ġexperience": 2902,
  "Ġexpo": 9006,
  "Ġexposed": 9292,
  "Ġext": 2226,
  "Ġextra": 3310,
  "Ġextremely": 3739,
  "Ġeye": 6761,
  "Ġf": 369,
  "Ġfa": 885,
  "Ġfab": 1274,
  "Ġfabric": 1329,
  "Ġfabulous": 5067,
  "Ġface": 8582,
  "Ġfact": 4505,
  "Ġfail": 8969,
  "Ġfair": 3982,
  "Ġfairly": 6978,
  "Ġfall": 2643,
  "Ġfalling": 8157,
  "Ġfalt": 9044,
  "Ġfamily": 6356,
  "Ġfan": 2054,
  "Ġfanatic": 9895,
  "Ġfancy": 5591,
  "Ġfans": 8745,
  "Ġfant": 5360,
  "Ġfantastic": 5737,
  "Ġfar": 3613,
  "Ġfashion": 3906,
  "Ġfavorite": 3445,
  "Ġfe": 2016,
  "Ġfeat": 3903,
  "Ġfeatures": 9743,
  "Ġfeaturing": 5700,
  "Ġfee": 1590,
  "Ġfeel": 1774,
  "Ġfeeling": 6995,
  "Ġfeels": 7927,
  "Ġfeet": 7926,
  "Ġfell": 5329,
  "Ġfelt": 1289,
  "Ġfemin": 6093,
  "Ġfeminine": 7068,
  "Ġfew": 3124,
  "Ġfi": 907,
  "Ġfield": 6532,
  "Ġfig": 3377,
  "Ġfight": 3708,
  "Ġfighter": 1679,
  "Ġfighters": 5573,
  "Ġfighting": 7312,
  "Ġfigure": 3896,
  "Ġfil": 6162,
  "Ġfile": 9072,
  "Ġfill": 8844,
  "Ġfin": 2163,
  "Ġfinally": 5418,
  "Ġfinancial": 3460,
  "Ġfind": 3102,
  "Ġfinding": 9946,
  "Ġfine": 2636,
  "Ġfir": 1907,
  "Ġfire": 5899,
  "Ġfirst": 2012,
  "Ġfiscal": 7357,
  "Ġfit": 807,
  "Ġfits": 3038,
  "Ġfitted": 2801,
  "Ġfitting": 3070,
  "Ġfive": 9295,
  "Ġfix": 6122,
  "Ġfl": 3452,
  "Ġfla": 3908,
  "Ġflare": 8409,
  "Ġflas": 9173,
  "Ġflat": 1158,
  "Ġflats": 4337,
  "Ġflattering": 1279,
  "Ġflirty": 6509,
  "Ġflo": 2991,
  "Ġfloor": 3342,
  "Ġflow": 2852,
  "Ġflows": 8728,
  "Ġflowy": 5037,
  "Ġfo": 1558,
  "Ġfollow": 2599,
  "Ġfollowing": 4846,
  "Ġfor": 432,
  "Ġforce": 3642,
  "Ġforces": 8002,
  "Ġfore": 6960,
  "Ġforeign": 9979,
  "Ġforget": 7384,
  "Ġforgiving": 4094,
  "Ġform": 3127,
  "Ġformal": 2225,
  "Ġformer": 8433,
  "Ġfort": 9049,
  "Ġforward": 4752,
  "Ġfound": 3063,
  "Ġfour": 5149,
  "Ġfr": 8890,
  "Ġframe": 5401,
  "Ġfre": 9073,
  "Ġfree": 5400,
  "Ġfriend": 3668,
  "Ġfriends": 3705,
  "Ġfro": 1025,
  "Ġfrom": 1086,
  "Ġfront": 2318,
  "Ġfuck": 7251,
  "Ġful": 8619,
  "Ġfull": 2979,
  "Ġfully": 9052,
  "Ġfun": 1434,
  "Ġfunction": 8687,
  "Ġfund": 8575,
  "Ġfur": 5928,
  "Ġfurther": 8209,
  "Ġfuture": 3959,
  "Ġg": 553,
  "Ġgala": 5147,
  "Ġgame": 2259,
  "Ġgamer": 4144,
  "Ġgames": 2136,
  "Ġgaming": 5391,
  "Ġgap": 8216,
  "Ġgar": 7160,
  "Ġgave": 4122,
  "Ġge": 1150,
  "Ġgeek": 8910,
  "Ġgener": 3114,
  "Ġgeneral": 4507,
  "Ġgenerally": 6883,
  "Ġget": 1370,
  "Ġgetting": 3011,
  "Ġgi": 3279,
  "Ġgir": 2479,
  "Ġgirl": 4369,
  "Ġgirls": 3617,
  "Ġgive": 2240,
  "Ġgiveaways": 5894,
  "Ġgiven": 6314,
  "Ġgives": 7700,
  "Ġgiving": 8766,
  "Ġgl": 2500,
  "Ġglad": 3566,
  "Ġglam": 9491,
  "Ġglamorous": 6638,
  "Ġglove": 2857,
  "Ġgo": 1346,
  "Ġgoes": 9075,
  "Ġgoing": 2315,
  "Ġgold": 3181,
  "Ġgone": 5189,
  "Ġgood": 1704,
  "Ġgorgeous": 2070,
  "Ġgot": 1138,
  "Ġgotten": 6395,
  "Ġgover": 9645,
  "Ġgown": 2990,
  "Ġgr": 3694,
  "Ġgra": 7242,
  "Ġgrad": 6359,
  "Ġgraduation": 8344,
  "Ġgrand": 9524,
  "Ġgre": 4086,
  "Ġgreat": 1016,
  "Ġgreen": 6861,
  "Ġground": 4814,
  "Ġgrow": 6604,
  "Ġgrowth": 9858,
  "Ġgu": 3497,
  "Ġguard": 8255,
  "Ġgue": 9213,
  "Ġguess": 9462,
  "Ġgun": 8580,
  "Ġguns": 7253,
  "Ġguy": 5738,
  "Ġh": 409,
  "Ġha": 813,
  "Ġhad": 1045,
  "Ġhair": 6284,
  "Ġhal": 3776,
  "Ġhalf": 4715,
  "Ġhan": 5914,
  "Ġhand": 6307,
  "Ġhands": 8332,
  "Ġhang": 8934,
  "Ġhap": 2682,
  "Ġhappen": 8254,
  "Ġhappy": 3374,
  "Ġhard": 3160,
  "Ġhas": 1460,
  "Ġhave": 864,
  "Ġhaving": 3354,
  "Ġhe": 991,
  "Ġhead": 3291,
  "Ġheadquarters": 7846,
  "Ġhear": 8006,
  "Ġheard": 6146,
  "Ġheart": 6605,
  "Ġheavier": 7774,
  "Ġheavy": 2764,
  "Ġhee": 1314,
  "Ġheel": 5440,
  "Ġheels": 1390,
  "Ġheight": 4981,
  "Ġhel": 2038,
  "Ġheld": 5453,
  "Ġhelp": 3449,
  "Ġhelped": 5766,
  "Ġhelps": 6331,
  "Ġhem": 3641,
  "Ġher": 4691,
  "Ġhere": 1544,
  "Ġhid": 6306,
  "Ġhide": 7890,
  "Ġhigh": 1672,
  "Ġhigher": 6612,
  "Ġhighly": 3436,
  "Ġhim": 3942,
  "Ġhip": 6467,
  "Ġhips": 2077,
  "Ġhis": 2459,
  "Ġhist": 1794,
  "Ġhistory": 1867,
  "Ġhit": 2424,
  "Ġho": 2494,
  "Ġhold": 3577,
  "Ġholiday": 4291,
  "Ġhome": 6039,
  "Ġhone": 8485,
  "Ġhonor": 5409,
  "Ġhop": 6109,
  "Ġhope": 6852,
  "Ġhor": 4834,
  "Ġhorses": 9083,
  "Ġhot": 3593,
  "Ġhour": 3658,
  "Ġhourglass": 5849,
  "Ġhours": 6079,
  "Ġhouse": 9015,
  "Ġhow": 1694,
  "Ġhowever": 3370,
  "Ġhref": 757,
  "Ġhttp": 2592,
  "Ġhttps": 815,
  "Ġhu": 4398,
  "Ġhug": 4990,
  "Ġhuge": 5634,
  "Ġhugged": 6343,
  "Ġhugs": 7255,
  "Ġhusband": 3845,
  "Ġi": 1029,
  "ĠiP": 1226,
  "ĠiPad": 7981,
  "ĠiPhone": 1253,
  "Ġide": 6756,
  "Ġif": 1216,
  "Ġill": 9310,
  "Ġim": 1658,
  "Ġimag": 9325,
  "Ġimmedia": 5129,
  "Ġimmediately": 5944,
  "Ġimp": 5923,
  "Ġimpa": 4994,
  "Ġimpact": 7708,
  "Ġimport": 5989,
  "Ġimportant": 7833,
  "Ġimpossi": 8682,
  "Ġimpossible": 8911,
  "Ġimpro": 9623,
  "Ġin": 490,
  "Ġinch": 2105,
  "Ġinches": 5403,
  "Ġincl": 2672,
  "Ġinclud": 3140,
  "Ġinclude": 8444,
  "Ġincluded": 7646,
  "Ġincluding": 4181,
  "Ġincome": 5792,
  "Ġincre": 2756,
  "Ġincrease": 6772,
  "Ġincreased": 9684,
  "Ġincredi": 4251,
  "Ġincredible": 7920,
  "Ġincredibly": 6008,
  "Ġinde": 7571,
  "Ġindi": 5490,
  "Ġindu": 7728,
  "Ġindustry": 9961,
  "Ġinfantry": 6373,
  "Ġinfo": 9929,
  "Ġinfor": 4762,
  "Ġinform": 3730,
  "Ġinformaci": 6577,
  "Ġinformation": 4237,
  "Ġiniti": 8794,
  "Ġink": 5540,
  "Ġins": 7752,
  "Ġinside": 7010,
  "Ġinstant": 6640,
  "Ġinstead": 4351,
  "Ġinstruct": 8779,
  "Ġinstructions": 9291,
  "Ġint": 6011,
  "Ġinte": 3066,
  "Ġintend": 9219,
  "Ġinter": 4585,
  "Ġinterest": 4273,
  "Ġinteresting": 7531,
  "Ġintern": 6277,
  "Ġinternal": 9141,
  "Ġinto": 2106,
  "Ġinvest": 5307,
  "Ġir": 8136,
  "Ġis": 604,
  "Ġisn": 4736,
  "Ġissu": 3564,
  "Ġissue": 3350,
  "Ġissued": 8853,
  "Ġissues": 5136,
  "Ġist": 6645,
  "Ġit": 500,
  "Ġitchy": 6580,
  "Ġitem": 9382,
  "Ġits": 2759,
  "Ġitself": 7019,
  "Ġj": 858,
  "Ġja": 2941,
  "Ġjacket": 3455,
  "Ġje": 2165,
  "Ġjeans": 5326,
  "Ġjeu": 6124,
  "Ġjeux": 9468,
  "Ġjewel": 5654,
  "Ġjewelry": 5843,
  "Ġjo": 1692,
  "Ġjoin": 7210,
  "Ġjoining": 2238,
  "Ġjoins": 5207,
  "Ġjour": 6964,
  "Ġjud": 9686,
  "Ġjumpsuit": 4520,
  "Ġjust": 1126,
  "Ġjustice": 7976,
  "Ġk": 1108,
  "Ġke": 2641,
  "Ġkeep": 2385,
  "Ġkept": 3055,
  "Ġkey": 9652,
  "Ġkilled": 7658,
  "Ġkind": 4018,
  "Ġkn": 1793,
  "Ġknee": 3676,
  "Ġknees": 6171,
  "Ġknew": 6084,
  "Ġknow": 2883,
  "Ġknown": 9658,
  "Ġl": 516,
  "Ġla": 1205,
  "Ġlace": 2247,
  "Ġladies": 5601,
  "Ġlarge": 1343,
  "Ġlarger": 2697,
  "Ġlas": 5929,
  "Ġlast": 3550,
  "Ġlate": 3604,
  "Ġlater": 5503,
  "Ġlatest": 5030,
  "Ġlaunch": 7458,
  "Ġlaws": 8706,
  "Ġlay": 4404,
  "Ġlayer": 8729,
  "Ġlbs": 6485,
  "Ġle": 916,
  "Ġlear": 7893,
  "Ġlease": 7589,
  "Ġleast": 4223,
  "Ġleather": 7067,
  "Ġleave": 7931,
  "Ġleft": 3346,
  "Ġleg": 5736,
  "Ġlegs": 4770,
  "Ġlength": 1259,
  "Ġles": 3439,
  "Ġless": 4573,
  "Ġlet": 5718,
  "Ġletter": 8852,
  "Ġli": 941,
  "Ġliab": 5362,
  "Ġliabilities": 7014,
  "Ġlic": 7252,
  "Ġlife": 4156,
  "Ġlight": 2793,
  "Ġlightweight": 9169,
  "Ġlike": 1055,
  "Ġliked": 2742,
  "Ġlikely": 7805,
  "Ġlikes": 7325,
  "Ġlim": 6181,
  "Ġline": 3415,
  "Ġlined": 8392,
  "Ġlines": 6073,
  "Ġlining": 4679,
  "Ġlink": 7111,
  "Ġlinks": 8892,
  "Ġliste": 2676,
  "Ġlistening": 2700,
  "Ġlittle": 1002,
  "Ġlive": 6408,
  "Ġlivest": 5941,
  "Ġlivestreams": 6009,
  "Ġlleg": 6711,
  "Ġllegar": 8044,
  "Ġlo": 689,
  "Ġlong": 1210,
  "Ġlonger": 3062,
  "Ġlook": 1031,
  "Ġlooked": 1708,
  "Ġlooking": 3086,
  "Ġlooks": 2391,
  "Ġloose": 2221,
  "Ġlooser": 8942,
  "Ġlos": 2506,
  "Ġloss": 5258,
  "Ġlost": 8553,
  "Ġlot": 1934,
  "Ġlots": 2762,
  "Ġlove": 1458,
  "Ġloved": 1184,
  "Ġlovely": 4549,
  "Ġlover": 6648,
  "Ġloves": 9759,
  "Ġlow": 2222,
  "Ġlower": 5541,
  "Ġluch": 5916,
  "Ġluchadores": 7402,
  "Ġm": 501,
  "Ġma": 712,
  "Ġmade": 1381,
  "Ġmain": 4534,
  "Ġmaintain": 8404,
  "Ġmais": 9747,
  "Ġmajor": 6734,
  "Ġmak": 2213,
  "Ġmake": 1847,
  "Ġmakes": 3045,
  "Ġmaking": 4526,
  "Ġmal": 9556,
  "Ġman": 2814,
  "Ġmanagement": 7234,
  "Ġmany": 1264,
  "Ġmar": 2082,
  "Ġmarch": 3363,
  "Ġmarches": 5297,
  "Ġmarke": 4092,
  "Ġmarket": 6035,
  "Ġmat": 8651,
  "Ġmatch": 8825,
  "Ġmaterial": 1439,
  "Ġmatter": 7910,
  "Ġmay": 1570,
  "Ġmaybe": 5007,
  "Ġme": 828,
  "Ġmeans": 8737,
  "Ġmeant": 8873,
  "Ġmeas": 6139,
  "Ġmeasure": 9190,
  "Ġmedi": 8088,
  "Ġmedium": 3533,
  "Ġmeet": 5725,
  "Ġmen": 2878,
  "Ġment": 4499,
  "Ġmention": 4666,
  "Ġmentioned": 6165,
  "Ġmer": 7423,
  "Ġmet": 6906,
  "Ġmi": 3362,
  "Ġmid": 2716,
  "Ġmiddle": 6388,
  "Ġmidsection": 7173,
  "Ġmight": 2986,
  "Ġmiles": 4822,
  "Ġmilitary": 7968,
  "Ġmillion": 2835,
  "Ġmin": 2964,
  "Ġmind": 4774,
  "Ġmine": 7717,
  "Ġminute": 7130,
  "Ġminutes": 9098,
  "Ġmis": 6156,
  "Ġmiss": 4514,
  "Ġmix": 9936,
  "Ġmo": 861,
  "Ġmode": 3049,
  "Ġmodel": 3978,
  "Ġmoder": 9802,
  "Ġmodest": 8944,
  "Ġmom": 9912,
  "Ġmoment": 7619,
  "Ġmon": 8822,
  "Ġmonth": 4515,
  "Ġmonths": 5690,
  "Ġmore": 1137,
  "Ġmorning": 4744,
  "Ġmost": 1887,
  "Ġmostly": 8220,
  "Ġmove": 2490,
  "Ġmoved": 6187,
  "Ġmovement": 6207,
  "Ġmovies": 4255,
  "Ġmoving": 7718,
  "Ġmuch": 1444,
  "Ġmulti": 5812,
  "Ġmultiple": 7936,
  "Ġmus": 8125,
  "Ġmusic": 5582,
  "Ġmust": 4622,
  "Ġmy": 772,
  "Ġmyself": 4486,
  "Ġn": 599,
  "Ġname": 6019,
  "Ġnarrow": 1747,
  "Ġnatur": 8507,
  "Ġnatural": 9749,
  "Ġnavy": 6340,
  "Ġne": 840,
  "Ġnear": 3443,
  "Ġneare": 7385,
  "Ġnearest": 7733,
  "Ġnearly": 8072,
  "Ġnecess": 4381,
  "Ġnecessary": 5459,
  "Ġneck": 1982,
  "Ġnecklace": 4502,
  "Ġneckline": 3199,
  "Ġneed": 1513,
  "Ġneeded": 2736,
  "Ġneeds": 8625,
  "Ġneg": 6521,
  "Ġnegative": 8161,
  "Ġner": 4821,
  "Ġnerd": 5846,
  "Ġnervous": 5487,
  "Ġnet": 5235,
  "Ġnever": 3016,
  "Ġnew": 1269,
  "Ġnews": 1573,
  "Ġnext": 3458,
  "Ġni": 9785,
  "Ġnice": 1683,
  "Ġnicely": 4212,
  "Ġnight": 1125,
  "Ġno": 787,
  "Ġnon": 5107,
  "Ġnor": 2548,
  "Ġnormal": 3890,
  "Ġnormally": 2928,
  "Ġnot": 869,
  "Ġnote": 7178,
  "Ġnothing": 3909,
  "Ġnoti": 2957,
  "Ġnotice": 4071,
  "Ġnoticeable": 6332,
  "Ġnoticed": 7302,
  "Ġnow": 2451,
  "Ġnude": 4064,
  "Ġnue": 4242,
  "Ġnuest": 6708,
  "Ġnuestros": 6826,
  "Ġnull": 8060,
  "Ġnumber": 4285,
  "Ġo": 441,
  "Ġob": 2789,
  "Ġobe": 4165,
  "Ġobedi": 4348,
  "Ġobedient": 4656,
  "Ġoblig": 7265,
  "Ġobligations": 9590,
  "Ġobtain": 8757,
  "Ġoc": 2416,
  "Ġoccasion": 3014,
  "Ġoccup": 7586,
  "Ġoccur": 9970,
  "Ġodd": 9077,
  "Ġof": 510,
  "Ġoff": 1723,
  "Ġoffer": 6505,
  "Ġoffi": 1596,
  "Ġoffic": 4771,
  "Ġoffice": 5562,
  "Ġofficer": 6223,
  "Ġofficers": 5090,
  "Ġofficial": 2280,
  "Ġoficial": 6361,
  "Ġoften": 6892,
  "Ġok": 4868,
  "Ġokay": 8946,
  "Ġold": 5210,
  "Ġon": 623,
  "Ġonce": 3530,
  "Ġone": 1250,
  "Ġonline": 6190,
  "Ġonly": 1474,
  "Ġonto": 4596,
  "Ġop": 1797,
  "Ġopen": 2767,
  "Ġoper": 2684,
  "Ġoperating": 5095,
  "Ġoperations": 4282,
  "Ġopin": 5374,
  "Ġopinion": 8176,
  "Ġopinions": 9553,
  "Ġopp": 8765,
  "Ġopponents": 9111,
  "Ġopted": 7246,
  "Ġoption": 3406,
  "Ġoptions": 7904,
  "Ġor": 888,
  "Ġord": 4645,
  "Ġorder": 2007,
  "Ġordered": 1539,
  "Ġordering": 6166,
  "Ġorders": 4976,
  "Ġorgan": 6838,
  "Ġorganiz": 8895,
  "Ġorig": 4012,
  "Ġoriginal": 5949,
  "Ġoriginally": 7442,
  "Ġother": 1375,
  "Ġothers": 3969,
  "Ġotherwise": 4671,
  "Ġou": 8361,
  "Ġour": 1160,
  "Ġout": 1043,
  "Ġoutdoor": 4587,
  "Ġoutfit": 4143,
  "Ġoutside": 6658,
  "Ġover": 1296,
  "Ġoverall": 2832,
  "Ġown": 2590,
  "Ġowned": 7746,
  "Ġp": 470,
  "Ġpa": 1998,
  "Ġpack": 8413,
  "Ġpage": 6615,
  "Ġpaid": 5990,
  "Ġpair": 4958,
  "Ġpaired": 4047,
  "Ġpand": 8778,
  "Ġpants": 5185,
  "Ġpar": 1848,
  "Ġpara": 3230,
  "Ġpart": 2286,
  "Ġpartic": 5527,
  "Ġparticular": 6354,
  "Ġparticularly": 9995,
  "Ġparties": 7992,
  "Ġparty": 1495,
  "Ġpas": 2447,
  "Ġpass": 8502,
  "Ġpassion": 4859,
  "Ġpassionn": 5600,
  "Ġpast": 4416,
  "Ġpat": 3081,
  "Ġpattern": 3432,
  "Ġpay": 4734,
  "Ġpe": 1812,
  "Ġpear": 5763,
  "Ġpen": 7004,
  "Ġpeople": 2851,
  "Ġper": 2020,
  "Ġperfect": 920,
  "Ġperfectly": 1605,
  "Ġperfor": 5884,
  "Ġperformance": 6846,
  "Ġperiod": 4842,
  "Ġpero": 4623,
  "Ġpers": 8747,
  "Ġperson": 1988,
  "Ġpersonal": 9361,
  "Ġpetite": 3567,
  "Ġphone": 9617,
  "Ġphoto": 2228,
  "Ġphotograph": 5395,
  "Ġphotos": 3924,
  "Ġpic": 8968,
  "Ġpick": 3318,
  "Ġpicked": 9326,
  "Ġpict": 2266,
  "Ġpicture": 3523,
  "Ġpictures": 3709,
  "Ġpie": 3429,
  "Ġpiece": 4271,
  "Ġpieces": 8597,
  "Ġpin": 4061,
  "Ġpink": 5377,
  "Ġpl": 1501,
  "Ġpla": 3823,
  "Ġplace": 2842,
  "Ġplaced": 9108,
  "Ġplaces": 3897,
  "Ġplan": 4283,
  "Ġplat": 5637,
  "Ġplatform": 6549,
  "Ġplay": 2505,
  "Ġplayable": 6014,
  "Ġple": 2629,
  "Ġplease": 5446,
  "Ġpleased": 8614,
  "Ġplenty": 6348,
  "Ġplus": 3560,
  "Ġpo": 1179,
  "Ġpockets": 2547,
  "Ġpoder": 6741,
  "Ġpoint": 3510,
  "Ġpol": 6840,
  "Ġpoo": 9551,
  "Ġpop": 4604,
  "Ġpor": 3303,
  "Ġportion": 5508,
  "Ġpos": 2877,
  "Ġposition": 4233,
  "Ġpossi": 4169,
  "Ġpossible": 5359,
  "Ġpost": 4699,
  "Ġpotent": 9313,
  "Ġpour": 3619,
  "Ġpower": 9681,
  "Ġpr": 1795,
  "Ġprac": 8532,
  "Ġpre": 1933,
  "Ġpref": 4982,
  "Ġprefer": 5862,
  "Ġpreferred": 8038,
  "Ġpreg": 6794,
  "Ġpregn": 6094,
  "Ġpregnant": 6729,
  "Ġpregunt": 6843,
  "Ġpreguntas": 6872,
  "Ġprepared": 8031,
  "Ġpresent": 4852,
  "Ġpretty": 1581,
  "Ġprev": 3997,
  "Ġprevent": 8233,
  "Ġprevious": 6154,
  "Ġpri": 3020,
  "Ġprice": 4855,
  "Ġprim": 6104,
  "Ġprimarily": 9748,
  "Ġprin": 4509,
  "Ġprincess": 8087,
  "Ġprincip": 8758,
  "Ġprint": 3768,
  "Ġprior": 9552,
  "Ġprison": 6123,
  "Ġprisoners": 7310,
  "Ġpro": 988,
  "Ġprobably": 2588,
  "Ġproblem": 3243,
  "Ġproblems": 8516,
  "Ġproceed": 6363,
  "Ġprocess": 7447,
  "Ġprodu": 3958,
  "Ġproduct": 8806,
  "Ġproductos": 6848,
  "Ġproducts": 2214,
  "Ġprofessional": 6228,
  "Ġprog": 6636,
  "Ġprogram": 9823,
  "Ġprom": 6866,
  "Ġproper": 4603,
  "Ġproperty": 7596,
  "Ġprote": 6597,
  "Ġprovid": 4984,
  "Ġprovide": 7794,
  "Ġprovided": 8566,
  "Ġpublic": 8567,
  "Ġpul": 8899,
  "Ġpull": 3620,
  "Ġpulled": 9322,
  "Ġpulling": 7054,
  "Ġpumps": 9144,
  "Ġpur": 2582,
  "Ġpurch": 4472,
  "Ġpurchase": 6229,
  "Ġpurpose": 8811,
  "Ġpursu": 9531,
  "Ġpush": 7773,
  "Ġput": 3007,
  "Ġqu": 1502,
  "Ġquality": 2976,
  "Ġquarter": 6919,
  "Ġque": 2114,
  "Ġquest": 2297,
  "Ġquestions": 2395,
  "Ġqui": 8340,
  "Ġquick": 8849,
  "Ġquite": 3210,
  "Ġr": 1171,
  "Ġra": 2224,
  "Ġrail": 7440,
  "Ġrailroad": 8077,
  "Ġran": 3219,
  "Ġrange": 9860,
  "Ġrap": 8247,
  "Ġrapid": 8924,
  "Ġrat": 5495,
  "Ġrate": 7967,
  "Ġrater": 7898,
  "Ġrather": 6259,
  "Ġre": 464,
  "Ġreach": 5666,
  "Ġreached": 9708,
  "Ġread": 3589,
  "Ġreading": 7378,
  "Ġready": 5646,
  "Ġreal": 4276,
  "Ġreally": 1239,
  "Ġrear": 6664,
  "Ġreason": 4849,
  "Ġrebel": 8506,
  "Ġrebels": 9306,
  "Ġrece": 6433,
  "Ġrecei": 5320,
  "Ġreceive": 8138,
  "Ġreceived": 1347,
  "Ġrecent": 8526,
  "Ġreception": 8283,
  "Ġreco": 4765,
  "Ġrecogni": 7289,
  "Ġrecognized": 9664,
  "Ġrecommend": 1423,
  "Ġrecommended": 9407,
  "Ġrecord": 7716,
  "Ġred": 3101,
  "Ġredu": 9133,
  "Ġref": 8019,
  "Ġreference": 8282,
  "Ġrefill": 9175,
  "Ġreg": 2272,
  "Ġregard": 7073,
  "Ġregiment": 5225,
  "Ġregiments": 7607,
  "Ġregret": 9583,
  "Ġregul": 7600,
  "Ġregular": 2671,
  "Ġrehearsal": 4588,
  "Ġrel": 715,
  "Ġrelat": 8545,
  "Ġrelated": 5166,
  "Ġrele": 9529,
  "Ġrema": 4980,
  "Ġrent": 1188,
  "Ġrental": 3453,
  "Ġrented": 1715,
  "Ġrenting": 3380,
  "Ġrep": 9269,
  "Ġreplace": 9628,
  "Ġreport": 2823,
  "Ġreported": 6745,
  "Ġreporting": 8198,
  "Ġreports": 7935,
  "Ġrequ": 2948,
  "Ġrequire": 5889,
  "Ġrequired": 5520,
  "Ġres": 1331,
  "Ġrespect": 3529,
  "Ġrespectfully": 4252,
  "Ġrespective": 8884,
  "Ġrespond": 2146,
  "Ġresponder": 6875,
  "Ġrest": 3956,
  "Ġrestons": 7756,
  "Ġresult": 3201,
  "Ġresults": 5118,
  "Ġret": 2347,
  "Ġreti": 8898,
  "Ġretour": 8786,
  "Ġretur": 5972,
  "Ġreturn": 3177,
  "Ġreturned": 6475,
  "Ġreturns": 8122,
  "Ġrev": 2129,
  "Ġreveal": 4878,
  "Ġrevealed": 5102,
  "Ġrevealing": 6066,
  "Ġreven": 3749,
  "Ġrevenue": 4281,
  "Ġreview": 1833,
  "Ġreviewers": 6567,
  "Ġreviews": 2126,
  "Ġri": 1244,
  "Ġrib": 4482,
  "Ġrich": 9536,
  "Ġride": 8192,
  "Ġrien": 6944,
  "Ġright": 1445,
  "Ġris": 5850,
  "Ġrisk": 9402,
  "Ġriver": 6222,
  "Ġro": 1371,
  "Ġroad": 3861,
  "Ġrock": 7991,
  "Ġromper": 5482,
  "Ġroom": 2379,
  "Ġroomy": 8307,
  "Ġros": 4894,
  "Ġroster": 4950,
  "Ġru": 9523,
  "Ġruff": 7540,
  "Ġrun": 1611,
  "Ġrunning": 9867,
  "Ġruns": 2139,
  "Ġs": 403,
  "Ġsa": 1619,
  "Ġsad": 6091,
  "Ġsafe": 4757,
  "Ġsafety": 6669,
  "Ġsaid": 2833,
  "Ġsales": 5876,
  "Ġsame": 3085,
  "Ġsand": 6036,
  "Ġsandals": 6888,
  "Ġsat": 4807,
  "Ġsatis": 8663,
  "Ġsaw": 5681,
  "Ġsay": 2250,
  "Ġsaying": 7820,
  "Ġsc": 3930,
  "Ġschool": 8395,
  "Ġscou": 9434,
  "Ġscrat": 5953,
  "Ġscratchy": 8788,
  "Ġse": 820,
  "Ġsea": 8533,
  "Ġseam": 9163,
  "Ġsecond": 4584,
  "Ġsection": 7126,
  "Ġsecur": 5457,
  "Ġsecure": 8020,
  "Ġsecurities": 9463,
  "Ġsecurity": 8692,
  "Ġsee": 1803,
  "Ġseem": 9391,
  "Ġseemed": 5665,
  "Ġseems": 8577,
  "Ġseen": 6746,
  "Ġself": 6244,
  "Ġsend": 3347,
  "Ġsent": 3008,
  "Ġsequ": 2693,
  "Ġsequins": 3003,
  "Ġser": 1903,
  "Ġserie": 9977,
  "Ġseries": 2340,
  "Ġserious": 8183,
  "Ġservant": 4657,
  "Ġservi": 2540,
  "Ġservice": 3343,
  "Ġservices": 4606,
  "Ġset": 5519,
  "Ġsever": 4089,
  "Ġseveral": 4214,
  "Ġsexy": 2053,
  "Ġsh": 871,
  "Ġsha": 2124,
  "Ġshall": 7499,
  "Ġshape": 2654,
  "Ġshare": 6680,
  "Ġshares": 5926,
  "Ġshe": 2784,
  "Ġsheer": 6869,
  "Ġship": 6430,
  "Ġshirt": 5012,
  "Ġshit": 9100,
  "Ġsho": 1350,
  "Ġshoes": 4236,
  "Ġshort": 1338,
  "Ġshorter": 3220,
  "Ġshould": 1627,
  "Ġshoulder": 4665,
  "Ġshoulders": 2817,
  "Ġshow": 1467,
  "Ġshowed": 5673,
  "Ġshower": 3859,
  "Ġshowing": 4714,
  "Ġshown": 8919,
  "Ġshows": 5385,
  "Ġsi": 1691,
  "Ġside": 2299,
  "Ġsides": 7104,
  "Ġsign": 4503,
  "Ġsignificant": 5629,
  "Ġsil": 3688,
  "Ġsilhouette": 7895,
  "Ġsilver": 7334,
  "Ġsim": 2796,
  "Ġsimilar": 7220,
  "Ġsimple": 3998,
  "Ġsince": 2155,
  "Ġsing": 6208,
  "Ġsingle": 7359,
  "Ġsit": 3030,
  "Ġsite": 8091,
  "Ġsitting": 5042,
  "Ġsix": 8289,
  "Ġsiz": 3682,
  "Ġsize": 577,
  "Ġsized": 5231,
  "Ġsizes": 3157,
  "Ġsizing": 3723,
  "Ġsk": 1650,
  "Ġskin": 3789,
  "Ġskirmish": 8398,
  "Ġskirt": 2281,
  "Ġsl": 1579,
  "Ġslee": 2095,
  "Ġsleeve": 7017,
  "Ġsleeves": 2441,
  "Ġslight": 2732,
  "Ġslightly": 3036,
  "Ġslim": 5261,
  "Ġslimming": 7807,
  "Ġslip": 4408,
  "Ġslit": 4539,
  "Ġsm": 5407,
  "Ġsmal": 2642,
  "Ġsmall": 1351,
  "Ġsmaller": 2702,
  "Ġsmash": 5348,
  "Ġsmoo": 6748,
  "Ġsmooth": 7990,
  "Ġsn": 2067,
  "Ġsnug": 2300,
  "Ġso": 651,
  "Ġsobre": 4510,
  "Ġsocial": 9758,
  "Ġsoft": 5116,
  "Ġsoftware": 5859,
  "Ġsol": 4049,
  "Ġsolutions": 8109,
  "Ġsome": 1154,
  "Ġsomeone": 3637,
  "Ġsomething": 2901,
  "Ġsometimes": 4449,
  "Ġsomewhat": 9039,
  "Ġson": 7146,
  "Ġsont": 7468,
  "Ġsoon": 4639,
  "Ġsophisticated": 7107,
  "Ġsor": 4533,
  "Ġsort": 8218,
  "Ġsorties": 7702,
  "Ġsou": 7398,
  "Ġsource": 8425,
  "Ġsouth": 9715,
  "Ġsp": 2386,
  "Ġspace": 7723,
  "Ġspanx": 4690,
  "Ġspark": 3587,
  "Ġsparkle": 7243,
  "Ġsparkly": 6315,
  "Ġspe": 2699,
  "Ġspec": 9610,
  "Ġspecial": 4331,
  "Ġsplat": 9088,
  "Ġsplats": 9287,
  "Ġspot": 8293,
  "Ġspring": 3121,
  "Ġsqu": 7751,
  "Ġst": 785,
  "Ġsta": 8995,
  "Ġstand": 2660,
  "Ġstandard": 8032,
  "Ġstanding": 8876,
  "Ġstar": 4001,
  "Ġstars": 6313,
  "Ġstart": 6910,
  "Ġstarted": 7216,
  "Ġstate": 2945,
  "Ġstatement": 4833,
  "Ġstatements": 6357,
  "Ġstay": 4277,
  "Ġstayed": 7647,
  "Ġste": 3491,
  "Ġstep": 9272,
  "Ġstick": 4163,
  "Ġsticky": 7701,
  "Ġstill": 1484,
  "Ġsto": 2209,
  "Ġstock": 2830,
  "Ġstomach": 5577,
  "Ġstood": 6506,
  "Ġstop": 4164,
  "Ġstopper": 9613,
  "Ġstore": 7060,
  "Ġstr": 1316,
  "Ġstraight": 4817,
  "Ġstrangers": 8805,
  "Ġstrap": 1819,
  "Ġstrapless": 2896,
  "Ġstraps": 3065,
  "Ġstre": 7011,
  "Ġstretch": 1781,
  "Ġstretched": 9548,
  "Ġstretchy": 3185,
  "Ġstrong": 7331,
  "Ġstruct": 5778,
  "Ġstructure": 9464,
  "Ġstructured": 9697,
  "Ġstuck": 8190,
  "Ġstudent": 7588,
  "Ġstuff": 4368,
  "Ġstunning": 3059,
  "Ġsty": 1940,
  "Ġstyle": 2311,
  "Ġstylish": 6825,
  "Ġsu": 3013,
  "Ġsub": 2651,
  "Ġsubject": 5905,
  "Ġsubsc": 7180,
  "Ġsubscription": 8168,
  "Ġsubstant": 9064,
  "Ġsubtle": 9408,
  "Ġsuc": 4578,
  "Ġsuccess": 5351,
  "Ġsuch": 2571,
  "Ġsugge": 4257,
  "Ġsuggest": 4922,
  "Ġsuit": 8346,
  "Ġsum": 9413,
  "Ġsummer": 2501,
  "Ġsun": 8880,
  "Ġsup": 2015,
  "Ġsuper": 1792,
  "Ġsuppli": 8727,
  "Ġsupport": 2831,
  "Ġsupposed": 9045,
  "Ġsur": 2059,
  "Ġsure": 2623,
  "Ġsurpri": 4997,
  "Ġsurprise": 9781,
  "Ġsurprised": 7137,
  "Ġsw": 4668,
  "Ġswe": 4103,
  "Ġsweater": 5539,
  "Ġswitch": 6248,
  "Ġsys": 8657,
  "Ġt": 764,
  "Ġta": 1333,
  "Ġtad": 4927,
  "Ġtags": 7827,
  "Ġtake": 2718,
  "Ġtaken": 5548,
  "Ġtaking": 8117,
  "Ġtal": 4447,
  "Ġtalk": 7274,
  "Ġtall": 3245,
  "Ġtaller": 5055,
  "Ġtape": 2867,
  "Ġtaste": 9635,
  "Ġtax": 3678,
  "Ġte": 1473,
  "Ġtech": 4469,
  "Ġtechno": 5824,
  "Ġtechnology": 7858,
  "Ġteleg": 8408,
  "Ġtell": 4175,
  "Ġtemp": 6851,
  "Ġtend": 6436,
  "Ġter": 3471,
  "Ġterm": 9671,
  "Ġterms": 7984,
  "Ġtext": 9728,
  "Ġth": 461,
  "Ġthan": 1224,
  "Ġthat": 809,
  "Ġthe": 368,
  "Ġtheir": 2283,
  "Ġthem": 1994,
  "Ġthemed": 8916,
  "Ġthen": 2659,
  "Ġthere": 1585,
  "Ġtherefore": 9397,
  "Ġthese": 2628,
  "Ġthey": 1516,
  "Ġthick": 2112,
  "Ġthicker": 6715,
  "Ġthigh": 6351,
  "Ġthighs": 9763,
  "Ġthin": 6443,
  "Ġthing": 3278,
  "Ġthings": 3099,
  "Ġthink": 1882,
  "Ġthird": 7159,
  "Ġthis": 645,
  "Ġthose": 3324,
  "Ġthough": 1941,
  "Ġthought": 2454,
  "Ġthous": 7377,
  "Ġthousands": 9297,
  "Ġthree": 4442,
  "Ġthroug": 1765,
  "Ġthrough": 2101,
  "Ġthroughout": 3684,
  "Ġti": 4158,
  "Ġtie": 2722,
  "Ġtight": 1303,
  "Ġtighter": 5901,
  "Ġtights": 5392,
  "Ġtime": 1455,
  "Ġtimes": 4084,
  "Ġtiny": 6249,
  "Ġto": 443,
  "Ġtoday": 4775,
  "Ġtodos": 8762,
  "Ġtogether": 5314,
  "Ġtold": 6368,
  "Ġton": 3405,
  "Ġtons": 3107,
  "Ġtoo": 1046,
  "Ġtook": 4190,
  "Ġtop": 1292,
  "Ġtors": 4358,
  "Ġtorso": 4464,
  "Ġtot": 4789,
  "Ġtotal": 7308,
  "Ġtotally": 4904,
  "Ġtouch": 4501,
  "Ġtoward": 7382,
  "Ġtown": 7297,
  "Ġtr": 1468,
  "Ġtra": 5832,
  "Ġtrain": 4140,
  "Ġtrans": 3137,
  "Ġtrend": 8182,
  "Ġtri": 3851,
  "Ġtrick": 8356,
  "Ġtried": 3498,
  "Ġtrip": 9057,
  "Ġtro": 3208,
  "Ġtroops": 4226,
  "Ġtrop": 8202,
  "Ġtrouble": 7806,
  "Ġtrue": 1571,
  "Ġtruly": 7505,
  "Ġtry": 2834,
  "Ġtrying": 5103,
  "Ġtu": 6977,
  "Ġtummy": 6600,
  "Ġtur": 7855,
  "Ġturn": 5303,
  "Ġturned": 7692,
  "Ġtus": 6599,
  "Ġtw": 1856,
  "Ġtweet": 3532,
  "Ġtwice": 9695,
  "Ġtwo": 2309,
  "Ġty": 2961,
  "Ġtype": 656,
  "Ġtypes": 8976,
  "Ġtypically": 4052,
  "Ġun": 1121,
  "Ġuna": 4803,
  "Ġunable": 8085,
  "Ġuncomfortable": 4014,
  "Ġund": 1378,
  "Ġunder": 1500,
  "Ġundergar": 9205,
  "Ġunderneath": 3880,
  "Ġunderst": 8868,
  "Ġune": 7352,
  "Ġunfortunately": 9662,
  "Ġunique": 3218,
  "Ġunless": 7392,
  "Ġunt": 4010,
  "Ġuntil": 4155,
  "Ġup": 889,
  "Ġupdate": 7424,
  "Ġupdates": 8389,
  "Ġupon": 3624,
  "Ġupper": 8217,
  "Ġus": 1337,
  "Ġuse": 2051,
  "Ġused": 3397,
  "Ġuser": 9199,
  "Ġusing": 5236,
  "Ġusual": 6089,
  "Ġusually": 2013,
  "Ġv": 1315,
  "Ġva": 7127,
  "Ġvacation": 8753,
  "Ġval": 3513,
  "Ġvalue": 4743,
  "Ġvari": 5647,
  "Ġvarious": 9663,
  "Ġve": 4966,
  "Ġver": 3935,
  "Ġvers": 6319,
  "Ġversatile": 7664,
  "Ġversion": 6164,
  "Ġvery": 961,
  "Ġvi": 2780,
  "Ġvibrant": 5507,
  "Ġvid": 4033,
  "Ġvida": 9653,
  "Ġvideo": 1912,
  "Ġvideojuegos": 4414,
  "Ġview": 7683,
  "Ġvo": 6458,
  "Ġvol": 9829,
  "Ġvon": 7731,
  "Ġvot": 6666,
  "Ġvotre": 7083,
  "Ġvous": 8756,
  "Ġw": 331,
  "Ġwa": 1307,
  "Ġwaist": 1536,
  "Ġwait": 3852,
  "Ġwaiting": 7311,
  "Ġwal": 7287,
  "Ġwalk": 3636,
  "Ġwalked": 8023,
  "Ġwalking": 6699,
  "Ġwan": 2525,
  "Ġwant": 2073,
  "Ġwanted": 2691,
  "Ġwar": 2556,
  "Ġwarm": 3503,
  "Ġwas": 496,
  "Ġwasn": 1814,
  "Ġwatch": 7204,
  "Ġwater": 9452,
  "Ġway": 1740,
  "Ġwe": 624,
  "Ġwear": 857,
  "Ġwearing": 1417,
  "Ġweather": 5170,
  "Ġweb": 5138,
  "Ġwebsite": 6663,
  "Ġwed": 6622,
  "Ġwedding": 1172,
  "Ġwedges": 7932,
  "Ġwee": 6614,
  "Ġweek": 4170,
  "Ġweekend": 5567,
  "Ġweeks": 8518,
  "Ġweight": 4298,
  "Ġweird": 6325,
  "Ġwell": 1285,
  "Ġwent": 2132,
  "Ġwere": 1217,
  "Ġweren": 9914,
  "Ġwh": 896,
  "Ġwhat": 2314,
  "Ġwhe": 7735,
  "Ġwhen": 1454,
  "Ġwhere": 2429,
  "Ġwhether": 8708,
  "Ġwhich": 1201,
  "Ġwhile": 2652,
  "Ġwhite": 3724,
  "Ġwho": 1631,
  "Ġwhole": 3985,
  "Ġwhy": 7278,
  "Ġwi": 644,
  "Ġwide": 5636,
  "Ġwill": 1251,
  "Ġwin": 9780,
  "Ġwinter": 4197,
  "Ġwish": 2541,
  "Ġwith": 724,
  "Ġwithin": 5676,
  "Ġwithout": 1872,
  "Ġwo": 766,
  "Ġwoman": 7911,
  "Ġwomen": 4260,
  "Ġwon": 5874,
  "Ġwonder": 4428,
  "Ġwonderful": 5587,
  "Ġwor": 1864,
  "Ġwore": 1010,
  "Ġwork": 1130,
  "Ġworked": 2419,
  "Ġworking": 7791,
  "Ġworks": 5617,
  "Ġworld": 3707,
  "Ġworldwide": 5870,
  "Ġworn": 2122,
  "Ġworried": 3633,
  "Ġworry": 5721,
  "Ġworth": 5809,
  "Ġwould": 926,
  "Ġwouldn": 3465,
  "Ġwound": 5521,
  "Ġwounded": 6762,
  "Ġwrap": 8475,
  "Ġwri": 7139,
  "Ġwrink": 4880,
  "Ġwrinkle": 9822,
  "Ġwrite": 8210,
  "Ġwriter": 7962,
  "Ġwrong": 7119,
  "Ġx": 6539,
  "Ġy": 759,
  "Ġye": 8587,
  "Ġyear": 2324,
  "Ġyears": 3625,
  "Ġyesterday": 8705,
  "Ġyet": 2998,
  "Ġyo": 7960,
  "Ġyou": 890,
  "Ġyour": 1271,
  "Ġz": 1587,
  "Ġzip": 1787,
  "Ġzipped": 7850,
  "Ġzipper": 2563,
  "Ġ{": 1642,
  "Ġ{\"": 1310,
  "Ġ|": 975,
  "Ġ||": 3490,
  "Ġ}": 1647,
  "Ġ},": 2014,
  "Ġ~": 6566,
  "ĠĊ": 966,
  "ĠĠ": 277,
  "ĠĠĠ": 1731,
  "ĠĠĠĠ": 313,
  "ĠĠĠĠĠĠĠ": 3451,
  "ĠĠĠĠĠĠĠĠ": 390,
  "ĠĠĠĠĠĠĠĠĠĠĠ": 9367,
  "ĠĠĠĠĠĠĠĠĠĠĠĠ": 2205,
  "ĠĠĠĠĠĠĠĠĠĠĠĠĠĠ": 2274,
  "ĠĠĠĠĠĠĠĠĠĠĠĠĠĠĠĠ": 571,
  "ĠĠĠĠĠĠĠĠĠĠĠĠĠĠĠĠĠĠ": 963,
  "ĠĠĠĠĠĠĠĠĠĠĠĠĠĠĠĠĠĠĠ": 1061,
  "ĠĠĠĠĠĠĠĠĠĠĠĠĠĠĠĠĠĠĠĠĠĠĠĠ": 978,
  "ĠĠĠĠĠĠĠĠĠĠĠĠĠĠĠĠĠĠĠĠĠĠĠĠĠĠĠ": 7306,
  "ĠĠĠĠĠĠĠĠĠĠĠĠĠĠĠĠĠĠĠĠĠĠĠĠĠĠĠĠ": 1222,
  "ĠĠĠĠĠĠĠĠĠĠĠĠĠĠĠĠĠĠĠĠĠĠĠĠĠĠĠĠĠ": 1302,
  "ĠĠĠĠĠĠĠĠĠĠĠĠĠĠĠĠĠĠĠĠĠĠĠĠĠĠĠĠĠĠĠĠ": 2437,
  "ĠĠĠĠĠĠĠĠĠĠĠĠĠĠĠĠĠĠĠĠĠĠĠĠĠĠĠĠĠĠĠĠĠĠ": 1589,
  "ĠĠĠĠĠĠĠĠĠĠĠĠĠĠĠĠĠĠĠĠĠĠĠĠĠĠĠĠĠĠĠĠĠĠĠĠĠĠĠĠĠĠĠĠ": 4485,
  "ĠĠĠĠĠĠĠĠĠĠĠĠĠĠĠĠĠĠĠĠĠĠĠĠĠĠĠĠĠĠĠĠĠĠĠĠĠĠĠĠĠĠĠĠĠĠĠĠ": 4518,
  "ĠĠĠĠĠĠĠĠĠĠĠĠĠĠĠĠĠĠĠĠĠĠĠĠĠĠĠĠĠĠĠĠĠĠĠĠĠĠĠĠĠĠĠĠĠĠĠĠĠ": 5061,
  "ġ": 225,
  "Ģ": 226,
  "ģ": 227,
  "Ĥ": 228,
  "ĥ": 229,
  "Ħ": 230,
  "ħ": 231,
  "Ĩ": 232,
  "ĩ": 233,
  "Ī": 234,
  "ī": 235,
  "Ĭ": 236,
  "ĭ": 237,
  "Į": 238,
  "į": 239,
  "İ": 240,
  "ı": 241,
  "Ĳ": 242,
  "ĳ": 243,
  "Ĵ": 244,
  "ĵ": 245,
  "Ķ": 246,
  "ķ": 247,
  "ĸ": 248,
  "Ĺ": 249,
  "ĺ": 250,
  "Ļ": 251,
  "ļ": 252,
  "Ľ": 253,
  "ľ": 254,
  "Ŀ": 255,
  "ŀ": 256,
  "Ł": 257,
  "ł": 258,
  "Ń": 259
}
